/**
  ******************************************************************************
  * @file    network_data.c
  * @author  AST Embedded Analytics Research Platform
  * @date    Sun Apr  3 13:54:01 2022
  * @brief   AI Tool Automatic Code Generator for Embedded NN computing
  ******************************************************************************
  * @attention
  *
  * Copyright (c) 2022 STMicroelectronics.
  * All rights reserved.
  *
  * This software component is licensed by ST under Ultimate Liberty license
  * SLA0044, the "License"; You may not use this file except in compliance with
  * the License. You may obtain a copy of the License at:
  *                             www.st.com/SLA0044
  *
  ******************************************************************************
  */
#include "network_data.h"
#include "ai_platform_interface.h"


AI_ALIGNED(32)
const ai_u64 s_network_weights_array_u64[ 46661 ] = {
  0xbdffdbb5be78e70cU, 0xbddca0873d86f65dU, 0x3d12cfd73cb65365U, 0xbcdb5d58bc9ab46cU,
  0xbe02f4583e922cc3U, 0xbe21998bbdc2b418U, 0x3cedcba93db73d5cU, 0x3d26ece9bc3b5562U,
  0x3e36f1f53d4751dfU, 0x3d107ae9bd15b3faU, 0x3def32863df13292U, 0x3da4deb1bda15da6U,
  0xbe288697bd55af93U, 0xbe06518b3d8e7498U, 0xbd342787bdafff29U, 0x3a861e173d2ae7bcU,
  0xbd2dc6793da03385U, 0x3d16660f3d868c19U, 0xbbff63203c8d45f0U, 0xbc90498c3db666beU,
  0xbc61f6723e0eb8b4U, 0x3d2190f83dc9eb4bU, 0x3d86b6d6be054252U, 0xbe54360dbd4f3db1U,
  0x3df47f0c3e1199c4U, 0xbce25ad63d22c0a9U, 0x3d9dae23bd8af219U, 0x3dee81693dc0ccebU,
  0x3e1be4933e099793U, 0xbdb6f75d3e205a0dU, 0xbe7ed67dbe26f559U, 0x3d20dc35be4fba50U,
  0xbd51edbebe2a6a15U, 0xbd91a17f3d675e0cU, 0xbcafc05a3e316f3cU, 0xbe04b62e3cc7c51fU,
  0x3c8290f2be0b27f3U, 0x3df4f51dbc3085afU, 0x3de7b6bfbc99cd1fU, 0x3bb4113b3e0556e8U,
  0x3d46427dbe50045fU, 0x3e67eff53df600bdU, 0xbd3ff89f3d84ce83U, 0xbdf53b183e3cc3d8U,
  0xbe7aaf91be8536b1U, 0x3df3f6ae3de428acU, 0x3e023c8fbe486071U, 0xbe828eb63d31482fU,
  0x3dded9983e1f2c57U, 0xbe5504c3be531d1eU, 0x3e0c7c3ebd39afaaU, 0xbe948c94bbb469beU,
  0x3e7cd88fbe965c7aU, 0x3d8e63083dbb8201U, 0x3e3bf154be12839eU, 0xbcd5aac5bc74e7e9U,
  0xbe1e93093dbef487U, 0x3c35e2d13d83fd67U, 0xbdd076613d0e781aU, 0xbb8618f6bdd80595U,
  0x3e36d88cbe35f95aU, 0xbbb0157fbdaf3110U, 0x3dae78a73e293156U, 0x3d86116a3e84d21bU,
  0x3db06b1dbe3b0ff6U, 0xbeb2fcdc3d3b83e5U, 0xbe9d0953bdebbdd0U, 0xbe431488be39d265U,
  0x3df9a2e4bd2f03bdU, 0x3e41c810be3bf9f1U, 0x3b8d7cd13d937775U, 0x3a70d79e3df02d9cU,
  0x3aba2f64be24ed40U, 0x3dc3d9a8bd8f925aU, 0x3bd1781ebd02e3e0U, 0x3e3934dd3de62ffaU,
  0x3d48e9bbbd9f3047U, 0xbd8370d03ddf84b4U, 0x3dc79a1bbdaea68eU, 0x3d2365383cb012e2U,
  0x3db913a6bc9e551dU, 0xbe071468bcae9fbaU, 0x3d3fb7cd3ceac263U, 0x3de17b2cbd3b6825U,
  0x3d9bd619bdbfcda3U, 0x3e098eecbd11db08U, 0x3d899f9bbe189e05U, 0xbe2670143d280f62U,
  0x3e4eec6dbe785df9U, 0xbc84c0533e1ef161U, 0xbdada6443d8b3c5dU, 0x3d340e08be95dfc2U,
  0xbe24e04f3da68661U, 0x3e04abd03df8e900U, 0xbd17956b3e01951cU, 0x3cb837e63e38a190U,
  0x3dbf6c28be561cafU, 0xbea35ef83e21fc77U, 0x3e2a742fbde1f8c1U, 0xbe1af4a6bd59b3e0U,
  0x3e066dd2be4d47f9U, 0xbc101b61bd8f34b8U, 0x3e3ca3843d08817fU, 0x3dbab6963e0ee670U,
  0xbc1f240fbcb56dd7U, 0xbe397e543e132528U, 0x3da95e863d22c511U, 0xbd01d9bcbd92141fU,
  0xbd9c2133be410711U, 0x3e10d8cd3da01fbeU, 0x3d81dce63e6e3769U, 0xbda311ffbda8b162U,
  0x3e2621c5be31f735U, 0x3d14c080be78a948U, 0xbe22b1953e157a84U, 0x3d8ac1e63d29831bU,
  0x3d58c538bda7ca36U, 0x3e10bdf63ddcbc28U, 0xbe1ea2133da3ab19U, 0xbe016f2dbca3c1fdU,
  0x3d1fa8c4bddbc630U, 0x3ddc6ea7bdd3e36aU, 0x3d257d03bd5ebfebU, 0xbc483d323da2216aU,
  0x3da11251bd063661U, 0x3d4246db3d924ca7U, 0x3dd4b3503d48e473U, 0xbd9617fcbe46a3cdU,
  0xbd26e03c3e455f8cU, 0xbd10dd54bdc74df1U, 0x3ce3a3663dea2967U, 0xbd98cf1d3c1dc984U,
  0x3cf9d3ed3de01bbcU, 0xbe1c70913cf3b582U, 0x3d245ef23e0e2ce8U, 0x3db50114bd2d406dU,
  0x3d2ac72fbcafc733U, 0xbd4c3c323d9d8a35U, 0x3da89c67bd9eedd2U, 0x3c9e28d73d58c98eU,
  0x3d9597d4bc76759fU, 0x3dce0ada3da1514eU, 0xbdf07310bdc26377U, 0xbd131b1e3e0a8402U,
  0xbb273a683d582258U, 0xbb105c12bd8344d6U, 0xbdb693a9bde07468U, 0xbd9143debaddb61aU,
  0xbad6c8cdbdc38c70U, 0x3d6879ae3c0d00f4U, 0xbcb60708bda88bd7U, 0xbd98dee73dbd05fdU,
  0xbe2eee58bab69416U, 0xbd2a9193bdb05e32U, 0xbcf08444bd239d70U, 0xbd86c279bcfba80bU,
  0xbcc3da84bc6f4233U, 0xbdbf1709bd80eabaU, 0xbdf824e9bde57bf2U, 0xbd81e3bebdd544d5U,
  0x3dedb440bd717d58U, 0x3bf16ba93d9fcb21U, 0x3e2d93a4bda51f6bU, 0x3e1401dc3df71dc5U,
  0x3da73030bd9ccaa7U, 0x3d05fa163d454d19U, 0x3d06d046bd931d37U, 0x3bb1f0373c09d2f3U,
  0x3bccd28f3c816f91U, 0x3dc1531e3de99d02U, 0xbc2ca6973da5bbe4U, 0xbd105ec2bc015ba6U,
  0xbcd60aed3de85aabU, 0x3ca2e5553ceeb7b2U, 0x3e084c323dd50c92U, 0x3d99708cbc42e885U,
  0x3c12f7a03d517423U, 0x3d7a27203d0efdbaU, 0x3ccbe1293d680c35U, 0x3d8fbb5e3d83d0a3U,
  0x3db1b69f3deea2b9U, 0x3dc017363d3a110fU, 0xbce144c93df9128cU, 0x3d81e29a3d61ffcaU,
  0x3bd36ce03d8b8d17U, 0x3dd1eb413d530547U, 0x3e206fb93cd955aeU, 0x3b6358323e1ab220U,
  0x3ddf62863e5c452bU, 0x3d8a97cb3df35b20U, 0xbc28637b3d72249cU, 0x3e311c1f3db58a00U,
  0xbd696844bdcd6c32U, 0xbc7626863e0ff764U, 0x3c353a923df9b277U, 0x3ddf09be3dc31a56U,
  0x3e2ded603c590a18U, 0xbb28af353caa7de9U, 0x3cbd6227bcd06a2aU, 0x3b0129573e23d967U,
  0xbbfb89783d975cb1U, 0x3d79a3453aa22fd9U, 0xbcd2657bbdaa9e47U, 0x3cc44a1fbd09a1ffU,
  0x3d9d8b973e49d8ccU, 0xbc1b05283e7122e8U, 0xbc0b118dbce8ff92U, 0x3e0eba65bb024cc5U,
  0xbdc03acdbdb383a8U, 0xbde0f81abd9e44a5U, 0xbda79e9abd885a7aU, 0xbd27d365bdc5fa25U,
  0x3cd9a66fbde32429U, 0x3dc9ff11bd5fbab8U, 0xbd91d18bbdd699ddU, 0xbe066bd5bd9cf95dU,
  0xbe0e3370bd4c106bU, 0x3d9620ecbe19ce82U, 0x3ca49501bd8ccbf6U, 0xbc23afea3d7e92e9U,
  0xbd29aa24bd99a16eU, 0xbd4a3a303d060bf0U, 0xbda12ee9be815f05U, 0xbd0e1f74bdf4e1b5U,
  0xbd88c0d4bcd71598U, 0xbe52431d3d17181cU, 0xbe2122c0bcf5bc52U, 0xbd9282763b709b84U,
  0x3ddac3cfbe261125U, 0x3de81544bd97825dU, 0xbe55af54be2c8473U, 0xbdd9b22dbdb61bc1U,
  0xbd2969a6bdefb67bU, 0xbd170623bdd7e629U, 0x3e3b59babda573a8U, 0xbdc474293cafd76aU,
  0xbdab87f7bded7cbcU, 0xbe042fcb3c1c9e1fU, 0xbd98e2bd3c79838fU, 0xbdf79f7f3cf8a264U,
  0xbde2217fbd9d33a4U, 0xbdf88fb4bda9960aU, 0xbddd005abdbfda87U, 0xbe76da0dbcdfd695U,
  0xbe1146f6bdf88568U, 0x3a4a471e3d875e98U, 0xbe144162bdb65717U, 0xbdaaaf7f3c4c5cd1U,
  0x3d77bf95be4166c9U, 0xbdb1cdb5be2da06eU, 0xbd503b64bdf63b95U, 0xbb285edf3d1f4e73U,
  0xbe091a4fbe2cc163U, 0xbe3603cabd3398adU, 0xbdfd33e53dd02fd7U, 0xbcd543b4bcca7f2bU,
  0x3d220897bdaea383U, 0x3c90b6c53c42b237U, 0xbc12a31cbd50cd49U, 0x3d2e817bbda3e4e2U,
  0xbd90452f3d836d24U, 0x3de439823d21df79U, 0x3da1efcbbd8cb43dU, 0xbe10ef77bdc6d0ceU,
  0x3c6c4a923d986224U, 0x3df65d48bcb9fa87U, 0xbe07af433e11fc20U, 0x3d4e61173e03adbdU,
  0xbcca57e4be80f82bU, 0x3cad8a1fbcb8c247U, 0xbcf6983fbc8f1447U, 0xbd929aed3ce85fb8U,
  0xbb105d7bbd48301cU, 0x3d39f995be127679U, 0xbd4fb64dbd3ae1f6U, 0xbe08015bbe4fc754U,
  0xbe1cef733d21e877U, 0x3d95f7043d411386U, 0xbdb35b32bdd0e3c6U, 0xbda8b755bd5a40d0U,
  0xbd4ea7413d76084dU, 0x3d4a6449be3495d2U, 0xbda73e893d811157U, 0xbdd8676e3cfbdaceU,
  0xbdb62f85be6e86bcU, 0xbc5260dcbe11e4c2U, 0xbd55f5c8be3ebe96U, 0xbe4133d9bdebda08U,
  0xbd9112223ce84e95U, 0xbd9de122bdc9476fU, 0xbe2d2360be566c71U, 0xbdf29dcfbe8ad993U,
  0xbdefe6bdbd4d2b79U, 0x3d54d0b1bde3b6ecU, 0x39e519d9bd6c7dd7U, 0xbde83fe3bccd53d4U,
  0xbc8b2abcbcdaf128U, 0x3bf8fc97be1132ffU, 0xbcefcf18bd1a4aacU, 0xbe19249fbdb6de86U,
  0xbe14040abdc9cb79U, 0xbe28ae19bdcc4d92U, 0xbe033be3bdaf0324U, 0xbddc1f5ebd7c7aeeU,
  0xbe03859c3dd05b26U, 0xbdcb9e61bd264f53U, 0xbe11a584bd783947U, 0xbe0a42a6bd17ca7cU,
  0xbb097110bd7b5e0fU, 0xbd60ba803cb4f5aeU, 0xbe374f85be345b87U, 0x3d27c19e3df0d795U,
  0xbe3615afbe1b3de3U, 0xbd6750f6bde788afU, 0xbc547920bda3dae9U, 0xbd15f2edbd2c4c68U,
  0xbdb367c6bd33fa47U, 0xbe492c01be50c9daU, 0xbdf9646abde98858U, 0xbe1efa93bd91418dU,
  0xbcfd9f163de8ba8bU, 0x3d679a88bd9a6334U, 0xbe0ec4c7bd9cf33bU, 0x3d518e13bd994bc0U,
  0xbe18ccfebd52cee1U, 0xbdf84735bd87e2ceU, 0x3d33a0253be19b59U, 0x3dc1c1e03d61f69bU,
  0x3da26c9ebd500e4aU, 0xbd9751803ca07078U, 0x3ddc39c3bcbb9cc2U, 0x3d0491e43c9d6f6fU,
  0xbcaaba0c3db93013U, 0xbd22ae8dbd27d7acU, 0x3cf76216bc084dcbU, 0xbd02254c3d806db4U,
  0xbcc4c2503df84f11U, 0x3d9b51cdbd88f403U, 0xbd9f9cdc3c8c117bU, 0xbce0d9843b559664U,
  0x3b7454903de1ce8cU, 0xbdee8460bbd7f690U, 0x3e1c41fe3e357a02U, 0x3dfade59be201c6dU,
  0xbc8fc0493c759f14U, 0xbdbe553a3e23a0d6U, 0x3da7cdd93d3e2130U, 0xbdad79403d64da3fU,
  0xbd9ac6bb3e19dbe1U, 0x3d01365c3ca0d2b9U, 0x3d9439f33dde65f4U, 0x3df2c2d73e066e10U,
  0xbdd5e34abd70e547U, 0xbe2d10d0bdf203c8U, 0xbd8e6061be9c07cbU, 0x3d21a955bdcece29U,
  0xbdccb5f8be4f522dU, 0x3cef7f0cbd9f4a28U, 0xbd41c787be160c49U, 0xbcdeb44a3c8fdaf9U,
  0xbdc234a6be59860dU, 0xbdc3cc1dbe0b4d9eU, 0x3c88d7f8be0983a5U, 0xbe074abebe605b8cU,
  0xbd9c81eabdea9368U, 0xbe4562c3bdfe7c6eU, 0xbda03754bda20ad5U, 0xbe5e4dbbbe54678bU,
  0xbdd47d753dc224e9U, 0xbcc9c29b3dc68df3U, 0x3d0fbfa7bcb24717U, 0xbe16b34d3abee4dcU,
  0x3e182845bdfd26eeU, 0xbd4f41a3bd659612U, 0xbd0be57b3d2bbdd9U, 0x3d2eafdcbe08f5cfU,
  0x3d339bd6be28938eU, 0xbe684a303c674bbeU, 0x3d46eaf8be50c771U, 0xbde60d3ebdddadf0U,
  0xbc9858743cefc617U, 0xbd850d323d503f16U, 0x3da64e233c250edaU, 0x3d94c49b3c9b8d59U,
  0x3d833abf3d0d531cU, 0x3d99c46c3e077e44U, 0xbdb0d6973cbe2c84U, 0xbcbae5c53db8e8b1U,
  0x3da289f93d4212f8U, 0xbdaee66d3d8e42f2U, 0x3d7187913d3078e0U, 0x3d575d56be5d7a71U,
  0x3dbcd33a3dc76be7U, 0xbca75ccebc8b8aa9U, 0x3e1761a13d1b40cbU, 0x3d96d497bdc52d8aU,
  0xbd7cd9ea3de11276U, 0x3cf40bb03dec260bU, 0x3c71148b3d237c8cU, 0x3d98bc4d3e2ad370U,
  0x3dd7a08abe0b7322U, 0xbdeddd81be8a9647U, 0xbd2ad72abdfa25b2U, 0xbdab5923be14c01dU,
  0xbe220a3abd04c015U, 0x3e1a718a3d64c48cU, 0x3d42537abdb4a9c7U, 0x3c0ea508bd158e8aU,
  0xbe42c1603db6ad98U, 0x3df54003bd85b308U, 0xbe28067e3d0f44cdU, 0xbc7ffab83de1406dU,
  0xbc0c1216be46bd57U, 0xbde4ec1fbe5e9fd5U, 0xbd74dee4bd8d94a0U, 0xbe80e29fbe32d9c5U,
  0xbe13c270bdb07482U, 0xbe52bc49bdf5b96dU, 0xbe665661be515267U, 0xbb56b9debc4727ddU,
  0x3e8bcc37be30b9eaU, 0x3e94fa98bd9aa56aU, 0xbe06fbc0bde16536U, 0xbe2c10fabde733ddU,
  0xbd20800bbe3f26e3U, 0x3dd6b9aebe7b8c37U, 0xbc71ad503a982eebU, 0xbe8fe28dbcfd95a4U,
  0xbe0a6a773b8e53d3U, 0xbe6b1da8bd8145a7U, 0xbe828101bd39012bU, 0xbea2a240bddd5245U,
  0xbe1479e8bd9ee2a1U, 0xbe6eef483e0ecda2U, 0x3c67eb49bdabf923U, 0xbd9d33a03ce43c45U,
  0x3ee29688be86cf07U, 0x3e7384b9be357365U, 0xbe25008dbe487b6dU, 0xbdab6435bd69ea35U,
  0x3c975ebebe0f6d8eU, 0xbe397fd7bdca0c83U, 0x3e28ec04bc757260U, 0xbe50e8fdbba93837U,
  0xbe9f385e3e31df8bU, 0xbc156dd33d2597c0U, 0x3cb3a2753c890a59U, 0xbcfd977fbd76d252U,
  0xbd9908f5bdc960d8U, 0x3b37a6983d48a361U, 0x3dae2230bd60c2f7U, 0xbd08a06a3c9449c0U,
  0x3c58e734bd1bb9c0U, 0x3d7e8acbbdefeb45U, 0xbca726cf3cf81f88U, 0x3cb21737be031224U,
  0x3c8f52493c5d1e3aU, 0x3d969cb73b8f6326U, 0xbd59189dbdf1940eU, 0xbd1e3168bdb16d5fU,
  0xbcbc655dbce0f213U, 0xbd025e89bd18d905U, 0x3deffc293cb80e78U, 0x3dca0fb73d87cc11U,
  0xbdc034203cfa7803U, 0xbcf0c00d3c85c45aU, 0x3d7d6ef53dfb19caU, 0x3a5ca14f3dc7d0e2U,
  0x3d735985bd9f5eccU, 0xbe14083cbde24265U, 0x3c5493debcc0ff3dU, 0x3d8fe0c5bde12ed9U,
  0x3e5538813c5d192cU, 0xbd938c05ba552b44U, 0x3ce0bf8bbc92d878U, 0xbbe9fb7ebd9ea4d6U,
  0x3c8e76723d25a681U, 0x3cd1e10b3d984f83U, 0x3e17f7b63e078fd7U, 0x3d8bc5783e1f6feeU,
  0xbc9f4176bd75cf62U, 0x3ce603503cead28bU, 0x3d8e0f953d56d97fU, 0x3a0af1f73db6af91U,
  0x3d989ea23d570cd5U, 0xbdaf8969bdc3629bU, 0xbdc07863be0d7773U, 0xbd64da2bbdc725ccU,
  0x3d89a3603d2f8c1aU, 0xbc3b5edf3dbf4697U, 0x3db06b5cbd812cf2U, 0x3d173e623d777c66U,
  0xbde5377b3d395094U, 0x3dd61a4cbd0a27bfU, 0x3dd7dbaf3b6fcf7aU, 0x3d5d01263d8b9ef5U,
  0xbdc6e51ebd4e7809U, 0xbda18253bd89e575U, 0xbd718289bd9c8c13U, 0x3addcdbf3dc4290eU,
  0x3da2c29ebe1590e6U, 0x3da7a78dbe25eb95U, 0xbd3c5577bd6faab0U, 0xbe265637bdaf9ab5U,
  0xbd398bf6be04d292U, 0xbe1c3a993cbea6c8U, 0xbd0940a6be0276f6U, 0xbda028113d407611U,
  0xbc85bf463d60d76dU, 0xbd1dbe4c3d68b6deU, 0x3dd80ec13b0ed220U, 0xbd017a89bde4c723U,
  0x3cfced95be1215d7U, 0xbdbacf873de58a4fU, 0xbdc9dcddbda76068U, 0xbd0e539a3d2b15b7U,
  0x3e387a12bdc8b07cU, 0x3e074777bdd40139U, 0x3ac4e2eebdae5a71U, 0xbddae77f3ca45283U,
  0xbca79c83be1344d3U, 0xbc5bffa7bdb557b5U, 0xb90ca17a3a2a08c8U, 0xbe27420c3d724185U,
  0xbd9bb2f93e51056fU, 0xbd765e743cbc2ea0U, 0xbdaee993bd423b57U, 0xbb037ddf3b6da590U,
  0xbd7df563bd9eb690U, 0xbdbd68e03dada7f7U, 0xbe19f6a03b7e140fU, 0xbe18ba553e26a8a3U,
  0x3e372084bd2f2710U, 0x3cf1646cbc49e0f5U, 0xbd757aa4bd417523U, 0xbdff7ed6bbb53a72U,
  0xbc244b7cbd739041U, 0x3d187247bdc63008U, 0x3ca8b14cbe150884U, 0xbca75cb4bdd1d80fU,
  0xbe4377d63b8e7f3aU, 0xbccbf2c83daf13e1U, 0xbdac8365bcd3caabU, 0x3d72aff33d757792U,
  0x3d8c48773dbaea61U, 0x3d2da35dbd3b4ec1U, 0xbd803b06be25f7aaU, 0x3dc3b728bda01152U,
  0xbd75e917bda6d8fdU, 0xbd134a26be9723a5U, 0x3d789264be089b31U, 0x3d566e4fbd52ce76U,
  0xbdf53834bd4816eaU, 0xbe5d386d3d3d2a02U, 0x3d9f5e263cb72d0eU, 0xbec143bc3ce49520U,
  0xbe5bc0ddbdb8d1e1U, 0xbe46de24bcab7444U, 0xbe0e59debda2bc05U, 0xbe060624bdffc083U,
  0x3d7961a83e07e3b9U, 0x3d6077c1bdf6e4f2U, 0xbd1e549b3c6e1d34U, 0x3df75f11bc94c981U,
  0xbd8417163e5ac7deU, 0x3dc4b4f6be967466U, 0x3dcef922bd11dcabU, 0x3e086c63bbd8e58cU,
  0xbdc6273bbc2f90c7U, 0xbdbadab53defe821U, 0xbc8a09fe3e1910e4U, 0xbd38f81b3e232a04U,
  0xbe0ba9fd3d532c94U, 0x3cca1c84be15e69cU, 0x3c75f586bd127eb2U, 0xbcdb80d03d8f41f4U,
  0x3d87967b3e004fa3U, 0x3d362ee73c1adde8U, 0x3ddc5a1c3d086503U, 0x3dd5b4cb3c4b2f3cU,
  0x3c8cf9303da55192U, 0x3c6e9c8fbe07c0a8U, 0x3e3aa5683de5c998U, 0x3d57a9abbe08c1ebU,
  0xbdcaac463c4c37a8U, 0xbdb690fb3c56f33dU, 0xbe20486f3d80c085U, 0xbd019cba3e341a62U,
  0xbdcd233dbd01b035U, 0x3db52ebcbe0e4789U, 0x3d1ed450bdfcb9ffU, 0x3cd102eebd1c569eU,
  0xbd0ca4d6bbf7de58U, 0x3e007b99bd2d2719U, 0xbda724503dc42e4dU, 0x3c91cd8d3d80fc7bU,
  0xbda195a5bd3f2d2eU, 0xbd6787ea3dc1cb0eU, 0xbc38909cbcc0d109U, 0x3d9fd3993d350ef3U,
  0xbd1fc7883b1d7be2U, 0xbccb96c63dbf479dU, 0xbd8e69bfbd779872U, 0x3d927970be220f92U,
  0x3bd87b903d663478U, 0xbd8162aabd6544e2U, 0x3b852dcfbdeda8f8U, 0xbd6ab529bd527640U,
  0xbe29ae8bbdfd42f7U, 0xbc39125c3dded131U, 0xbcf9182f3d2b0d64U, 0xbc8ac00d3be5e39aU,
  0x3dbfd7363cf6fe02U, 0xbd89137fbdac721eU, 0xbdc19faa3bfaeeb1U, 0xbd7a8d0ebd818e60U,
  0x3d915448be229183U, 0xbd9a5ddabdebeba4U, 0x3e05d0b5bcb75c32U, 0xbd1066c1be0bcafeU,
  0x3cafcb5a3d5e5978U, 0xbd388704bc8bbe5cU, 0xbca8ef403e12ffb5U, 0xbd177d6a3d7e5139U,
  0xbd43fb92bd662a10U, 0xbd38a005bdbd22b0U, 0x3d89a618bdcfe64bU, 0x3db55534bd94e10eU,
  0xbe8d42893c032a17U, 0x3c143b84bd72434cU, 0xbd2887403ddcde98U, 0x3cf57624bdcd908bU,
  0x3dcdf2033be39828U, 0x3d756543bd8fd4a6U, 0x3da528523e03238cU, 0x3ce39fdb3cdbb435U,
  0x3e266520be5760e7U, 0xbc32aab8bd15096dU, 0x3d8b87843e091c43U, 0x3cdbd853bd4469b3U,
  0xbd5642d93c3698e7U, 0xbdd73975bca90718U, 0xbdacab8abd1c323fU, 0x3d8cb647bcb7f771U,
  0xbd49813f3da25a80U, 0xbbed3adc3d84405eU, 0xbd3c0b193e238be8U, 0x3d28cef4bcfeb7f4U,
  0x3c8084523c701863U, 0x3e0b25afbaaee63bU, 0xbcfaef653db2448eU, 0xbda42b2b3c8b19d0U,
  0x3d26a9243e0a6e14U, 0x3c5cf22c3bca2cb4U, 0xbdc9af7c3ce5be48U, 0xbc146aa33d3ae8f6U,
  0x3d7ee0293ca9c4beU, 0x3d0278c9bc5a30ffU, 0x3c1f7df4bd4ee098U, 0x3d9848afbc89fab8U,
  0xbdb7a82bbcbd8442U, 0xbe3a25f3bd4d7135U, 0xbbd852b73d8f7b83U, 0x3d5954cebc8b8117U,
  0x3a0572423d779a1fU, 0xbda2b3c13ba2b291U, 0x3ba50ab33d869c7fU, 0xbce0e9533c1532b0U,
  0xba9aabf73e4e03e7U, 0x3cb84c543d4571b5U, 0xbd9ef5543d522050U, 0xbdadded6bd18e21fU,
  0xbe204445bdecdfa9U, 0x3b8e5495bc13553fU, 0xbdd00f293cb198ffU, 0x3e31e2863dd5e560U,
  0xbdd35f3f3cebd4e9U, 0xbdec4900bdd9fd7cU, 0x3de2db9e3e105db7U, 0x3e1f46013e0b4b90U,
  0x3b695cafbb494b0dU, 0xbca8d8d93d4091d8U, 0xbd2f3c7dbdc875ecU, 0x3da04631bd4d5769U,
  0x3da71dac3e806329U, 0x3d4a82adbca4d761U, 0xbcbd3b78bcf5739bU, 0xbd870a4bbd868763U,
  0x3e044a71bccba7d9U, 0x3dfcdf383d8e0b50U, 0x3c9971913dca1a63U, 0x3e6cb6cd3df33b5fU,
  0x3e150a9c3d2aed9bU, 0x3ce2d868bbb7beddU, 0x3cebc36a3ce7d619U, 0xbd362f3cbda58818U,
  0x3d9972f73e058a69U, 0x3cda17a43db6f66fU, 0x3ce975843e1ea039U, 0x3d9b41d93e3c6550U,
  0x3d70d3683dff39e4U, 0x3c9759103c941526U, 0x3cebb5e53dc12bbaU, 0xbd17b7723d5460d5U,
  0x3a8f3767bdf27f56U, 0x3c969c7d3ddb37f6U, 0x3d05ea1dbcb8e21eU, 0x3e607d273e45b06dU,
  0x3d89c9013e08a6bdU, 0xbe55dc84bd1b9310U, 0x3dfd61203c39d30aU, 0x3d7391f83d9ca65cU,
  0x3d107148bcb8a066U, 0xbe1611753db8d23bU, 0xbdda3488bd8e6f3cU, 0x3d60cfdc3ca218dfU,
  0x3bfe2a393e7c6d04U, 0xbcbf57cf3d9463a9U, 0x3d2e374fbdc12b3cU, 0x3d8fd0373c5e00afU,
  0xbdf65b8dbd87b19eU, 0xbcd4eb59bd8f3359U, 0xbd6db31f3d9befa4U, 0xbd9331253d218f58U,
  0xbc3135d93d010167U, 0xbe92a007bcebed1eU, 0xbe04603c3d168fe7U, 0x3c369e6f3d401cd6U,
  0xbd55a118be0172ebU, 0xbd819d7cbdb9da0eU, 0xbe2c2eedbe24024eU, 0xbd41d44ebe723e82U,
  0x3d563e1a3e088f27U, 0xbdd1c8313c3cdbb1U, 0xbc623112bcd049deU, 0x3ca8a570bc8f112bU,
  0xbd9728fcbd3ee704U, 0x3c842454bd4294f8U, 0xbdc4f6f3be152941U, 0x3d98edd7bcfb0177U,
  0x3ae1af713d086a73U, 0x3b1e07343c860f19U, 0xbdaae4da3ac6e36fU, 0xbcb133e2bdf97840U,
  0xbd0745493bd57903U, 0x3c56c725be223c4fU, 0xbdec10d03e11e22cU, 0xbd3d62e73cafb644U,
  0x3da04d58bd83a0a7U, 0xbdcef1aabc9891a0U, 0xbd57d0283d2380b4U, 0xbc535df4bd16e649U,
  0x3d75675a3dcb48d4U, 0x3d2247f63da2f5aaU, 0x3dd853b83b3d73b1U, 0x3e0f6f79bb39105aU,
  0xbd804d98bd7aab78U, 0x3cf3d3a8bc92c55bU, 0x3df078e5bc514e08U, 0x3df316fcbd1d08e2U,
  0xbc5863863cc9eaf3U, 0xbd50bf853c09652cU, 0x3d22eaa3bd41df4fU, 0xbdd0c6233d981605U,
  0xbd4c93863d4bade0U, 0x3cb3c25f3c884ef4U, 0x3bc1835c3dc268c8U, 0xbd35c2bf3d399f2bU,
  0x3d78c3383d49796fU, 0x3d050306be1cb811U, 0x3d9a594b3c448165U, 0x3e166ea6bdd80556U,
  0xbe15c254bd62ae92U, 0xbd911d66bd17ffdeU, 0xba5fdff53da3bc3eU, 0x3daab2b1bc734ea1U,
  0x3db267383cf1a663U, 0x3da84adfbb6dfebbU, 0x3d05761abd059a26U, 0x3de7f1743deef68aU,
  0x3cf059c63d1344deU, 0x3d79bedcbc0526a8U, 0x3cdad2553c432f83U, 0x3cfdd9473cf51b83U,
  0x3df6b347bd75d16fU, 0x3def1326bd149af4U, 0xbd9996413c68afaaU, 0x3e1aa936bdd6b8b8U,
  0xbdef3dec3cef88b8U, 0xbc818ba7bdaa1916U, 0x3db3e12f3a5d7174U, 0x3d5cfcb3be2c6e09U,
  0x3d63310cbb8aba14U, 0x3df91ab73d8fff52U, 0xbda727933dc8745cU, 0x3c683bec3e038a47U,
  0x3db9a05fbd67c2daU, 0x3dd255b3bdb56b66U, 0x3daef2e6bcfe0975U, 0x3d5ad3c6bcef5703U,
  0x3ae863883c48b2efU, 0x3d2df3913ccec21eU, 0xbb32a20e3c454033U, 0x3e0e87f23dac1a6bU,
  0xbc1e53c73b07d1c9U, 0xbe55e870bde7b34dU, 0x3ca910993e1a8911U, 0x3ddc2431bdf2ac09U,
  0xbc07dd0d3d8a4666U, 0xbe3044823df3dd9cU, 0xbdf42f6bbd5370ebU, 0x3d7ab8aabbd39b96U,
  0x3d1a50e83e600437U, 0x3d839d1e39cda8a9U, 0x3d8d6848bbae02e4U, 0xbc8bb7cd3d56fccbU,
  0xbb738700be0901fdU, 0x3c28560f3d430b13U, 0xbd5974ea3d15042cU, 0x3d982e1d3d80ffd5U,
  0x3c83af543c03d425U, 0xbe3408c6bd7c074cU, 0x3d731a7d3ca6d600U, 0x3dbd02143d6403b5U,
  0x3e078550bd1ba6fcU, 0x3ced6a473decda24U, 0xbcfd7656bddb85ebU, 0xbc73b26dbe107736U,
  0xbd0b86a33e0a412fU, 0xbd50c853bd012d29U, 0x399404d8bd113f3dU, 0x3da617533dd6b166U,
  0xbb48aa50bd3ea8a5U, 0x3cd8aa713d3d6975U, 0x3d2a85de3d08e4d7U, 0x3d5de3d33db07182U,
  0x3d777acd3e146677U, 0xbe15ec463c4d2b4bU, 0x3d21c06f3cf858c4U, 0x3de731383d88ced1U,
  0x3dc7c3973dfc6eebU, 0xbde999353d1001f7U, 0xbc7172fcbd31e2b3U, 0x3d78e7553c7bf389U,
  0xbd8ea3d13dae9630U, 0x3e170de3bb0f2e1fU, 0xbbe312573da8596cU, 0x3d463c083de14007U,
  0xbe21b960be44b745U, 0xbdffa0cd3dff16f7U, 0x3d0415d23d7c5e73U, 0x3db3021e3df653adU,
  0x3dce1395bd481f6cU, 0xbe1f4b523cfaa056U, 0xbe15b4bfb9d4f7a8U, 0x3d65ed9a3dac04a9U,
  0x3d0df79ebd34a013U, 0x3d820c65bcf4cdafU, 0xbd5f38c0be539acbU, 0x3dac684bbdd83773U,
  0x3d6d15cb3db6ee5bU, 0x3d6809e93d140642U, 0x3d08b3113d35b01bU, 0xbd839000bd0eac4cU,
  0xbe5af12cbe8298ecU, 0xbd8b578abbc3c33aU, 0x3d91003b3c395e9aU, 0xbdc8d5913e18f2e5U,
  0x3d858b7c3caf3670U, 0xbe80410b3de53d9bU, 0xbe09bf0bbd2633deU, 0xbdb3faa63bdde580U,
  0xbb6d641d3cbbcd06U, 0xbc1dbb11bddb2767U, 0x3c5b6235bc062636U, 0x3d6ab27fbe1dae57U,
  0xbc448afbbd64c57aU, 0xbcb369303d118efeU, 0x3cee85763dd821d1U, 0x3da1d6cfbd4b00c7U,
  0xbe0541bebc2717c1U, 0xbdd46ce43df314e5U, 0x3bfeb515bddaf5d2U, 0x3cece6333d8be592U,
  0x3dfb2c34bd8514f5U, 0x3c1caf7ebce76803U, 0x3d269b02bdf7216aU, 0xbd54a177bd896505U,
  0x3e10d383bd10cddeU, 0xbd51b64c3c082012U, 0x3dd76df6bd08c720U, 0x3d108d10bd8acb6bU,
  0x3bfb71563da6fc54U, 0xbd72b5213d0b7d78U, 0x3d7718ff3e535ff4U, 0x3d1759483dada939U,
  0x3de46b69bc85da6cU, 0x3d3f92d93d4e8d52U, 0x3e159033bd8f01afU, 0x3e08c5a43c3284f5U,
  0xbbdb9f24bd8de5d3U, 0xbd80ef38be1bbf52U, 0x38eb5d3ebdb3f93bU, 0x3c9345cfbe4dcc5cU,
  0x3dcaf52c3da805cdU, 0x3dec86b73d106462U, 0x3dcb70f03e104df5U, 0x3bedd2283e086b7dU,
  0x3d84e55bbd20daa8U, 0x3dd70a643d235544U, 0x3e1a83173de80515U, 0x3d0ab4573d04f689U,
  0x3deb0a4fbd9522a5U, 0xbc6fd92d3e22a31dU, 0x3d56d14c3dd76f24U, 0xbc1374ff3d8cbbc2U,
  0xbe12a196bdaeafaaU, 0x3ca3b6f93d2142d3U, 0xbd7a69843ddc2ea4U, 0xbd875c1abdc7caebU,
  0x3ba5c7363cba71f5U, 0x3dc6897abbc3dd15U, 0x3d6328693ddf6d7fU, 0xbd3345d43d8c6820U,
  0xbdb553c63cc454ceU, 0xbc8967e23cae88ceU, 0x3d98021bbd07595fU, 0x3d732cc03dd3c078U,
  0xbe08d4f9bd759f48U, 0x3b7e8a093da6db98U, 0xbddcde92bdc958e5U, 0x3d500002bd3bf63fU,
  0x3d82bf46bdcd396cU, 0xbbdb2811be884cc7U, 0xbc7bd63ebe2b8cf5U, 0xbd355342bb29ca4dU,
  0x3ba1a7c8be351986U, 0xbe57c5f8bdf77b3dU, 0x3db8a217be4da42aU, 0xbe426c4abe4f39ddU,
  0xbe38a31fbdeabe86U, 0xbdd9c3e9bce866e4U, 0xbe0b05223d2e6a71U, 0xbd64667fbd81f64aU,
  0xbdffd6153d21b33bU, 0x3d1f6fd93d834648U, 0xbc898e393cd510ddU, 0xbd3455f9be446632U,
  0xbd98e17dbda7a7b2U, 0xbe070426bbcb1d48U, 0xbc847b893cad8184U, 0x3d9d57b9be896db2U,
  0x3dbe6cd03d82534cU, 0xb9c5eb40bd2e4614U, 0x3e3f8004bc0c1413U, 0xbd595f58be48d3f4U,
  0x3c885f17be5193ddU, 0xbd6d88c53da0c511U, 0x3de651423dc19e11U, 0xbd1bb6023c2ea224U,
  0xbde2a6ddbd8485dfU, 0x3d1c2c003ae14428U, 0xbcd324673cde6f54U, 0x3e233f5bbd818d97U,
  0xbdf77ce93d067f4dU, 0xbcd2b711bd22a125U, 0xbbb9d35c3d1197d4U, 0xbd4a90e2bd143859U,
  0x3ba2cc25bd478cbaU, 0x3db774aabd31d6e1U, 0x3d0b81c13dad1296U, 0xbd6bdd6bbd59e81cU,
  0x3d1c03c4bd91680dU, 0x3d6526083e1b906aU, 0xbdde09233d673e7bU, 0xbda27224bd1ff28dU,
  0x3d8880babc6f5268U, 0x3dd34b6ebc616545U, 0xbde070863cb5e6e3U, 0x3d176953bcbcab15U,
  0xbd05e9d33dcd5ad5U, 0xbc740276be01629aU, 0xbc5c62c73d1e29baU, 0xbc351874bde7849dU,
  0xbd8254fb3ce0c430U, 0xbe7eeeb13c444145U, 0x3d7fec88be035b4bU, 0xbe499a0b3d2af41aU,
  0xbddcf1ee3dcba4bbU, 0xbde5ec00bd8f17a8U, 0xbe36f0e4bce39cc0U, 0xbd42958ebd620b2dU,
  0xbd9f61063dbfaba2U, 0x3ce5ceca3ca4f134U, 0xbdf429f83dacec66U, 0x3c552fda3ae93c94U,
  0xbdbbefa53daf179aU, 0xbe4b2e92bd8c3430U, 0x3ca50468bd6eaddbU, 0x3e0ab18cbdba4eeaU,
  0x3da75f223d540c53U, 0xbdff3039bcdee026U, 0x3e144f4dbdea38beU, 0xbde62202be47ab59U,
  0xbd65dd5b3d2711efU, 0x3d400f763c5f7ab3U, 0x3d9de4e93d285dfeU, 0x3d953a7b3d91c68bU,
  0x3e0a6e8bbe42bef7U, 0x3dda6786bd3acde7U, 0x3e0a41123d91c8cdU, 0x3dc399a6bd1268d0U,
  0xbccbf7e8bda5ee98U, 0xbdc6d90cbd52452aU, 0xbbe128c8bdd7ba46U, 0xbdc8509ebdc04dcbU,
  0x3d5329df3cd534c2U, 0xbba04fc23c18a6a3U, 0x3d14068f3d6bda90U, 0x3cfa723fbd3f7c61U,
  0x3d1155f13d913e78U, 0x3dfd3884b893bee5U, 0x3d0d251f3d3a6db5U, 0xbc0014563b9e1e53U,
  0x3d02a3edbd564486U, 0xbe03911fbdf13d66U, 0xbe6a542dbe61f992U, 0xbe3bb848be232ef0U,
  0xbe11fac0be8184e1U, 0x3d6b8110be4a4329U, 0xbbede3f5bdab73d7U, 0xbe2557a7bd764a4fU,
  0xbe4cc729bdfe5294U, 0xbdab7486be4cda40U, 0xbd9980ecbc924d7eU, 0xbe22ed73bd96030aU,
  0xbe156eafbdf6e074U, 0xbe7bce34be2efa91U, 0xbdfd6c2dbe0aaddbU, 0xbda48566be3167f6U,
  0xbdf94575bc22bb8cU, 0xbdce50eebdc7bf66U, 0xbe000c2abe2c5a51U, 0x3ba0a708bd113e33U,
  0x3cef9677bdd6b053U, 0x3d71d483bdb1c7e0U, 0xbe256fb6be4d0077U, 0xbdda19153c6c79d1U,
  0xb90af920bda0aba7U, 0xbc54fc6fbddc17f2U, 0xbdd8abb7bd121c53U, 0xbe2ecf4dbdacd4b8U,
  0xbdfdd3acbd969b26U, 0xbe46a78abdcfab0dU, 0xbe1917a3bdba0977U, 0xbe6b8948bd942898U,
  0xbdcc29fcbd5fd851U, 0xbe1865893dc5ad34U, 0x3d1b7285bdef6ec0U, 0x3dac9e0bbd66ab1dU,
  0x3d45f765bdb3ee90U, 0xbcc7980fbe078477U, 0xbe397c87bd9d425aU, 0x3bd0404c3c46ef22U,
  0x3d8f1d25be7d85d5U, 0xbdcdd9ae3cd48e92U, 0xbc360be7be0adabbU, 0xbe2456febe233938U,
  0xbe07ed363b9bce41U, 0xbdc8a86c3cdc9cabU, 0xbd0ddb013dc4c6acU, 0xbdeb93ccbdb0db74U,
  0x3cdfcff03d58be7cU, 0x3c4011c63c64d259U, 0xbcd2d904bd9ad00bU, 0xbd8037f6be2b81e3U,
  0xbd0c96b5bd07c957U, 0xbd5c81f9be03ee03U, 0x3c96c2493de70920U, 0x3d599bcbbc429430U,
  0xbde7f3cabc7e0358U, 0xbccda8a4bcd51142U, 0x3d1d8ee8bb240ea2U, 0xbe6abaecbc4113f2U,
  0xbd885ccebd26cdb7U, 0xbdf7190cbdd86140U, 0xbd2ab32bbda316efU, 0xbe089d24bdac1e60U,
  0xbd448ffdbd85e33fU, 0x3d95aac8bda33d8cU, 0x3d70fde0bc9bbdb6U, 0x3c0003febe4c0b29U,
  0xbd4bcb72bd5343abU, 0x3d5f04ffbd87a6b4U, 0xbd0057ef3da1bb75U, 0x3d06dd5cbd313341U,
  0xbdd6d6fcbc4dd3f6U, 0x3d0810eabd82b987U, 0xbdedd9f43cd17ea3U, 0xbdb62bed3d9d20baU,
  0xbdc6b17cbdc102aaU, 0x3cb974c9be3cfdefU, 0x3c81d9ccbd5df5a8U, 0xbbcdff82bdce8dc6U,
  0x3d2a4d7d3d295d18U, 0x3d63ea7fbd9f8457U, 0x3d03842abdf8f3f7U, 0xbdf86519bc933d15U,
  0xbd0492e2bcf06829U, 0x3b9b3dd7bdc5a5e0U, 0x3d121458bdc49b99U, 0xbdc4947fbd3c3bd1U,
  0xbe40db73bd8230acU, 0x3d8dee3f3ca91eaaU, 0x3d8f21ff3d7dffccU, 0x3d58bdc53ccdf49eU,
  0x3c6c4703be166ed1U, 0xbcb49cccbd13990eU, 0xbc558b31bd131cd9U, 0xbd41981abd918972U,
  0xbc9f1a7a3a590a92U, 0x3d1c58b83d0494b8U, 0x3c4cb3fbbcec035aU, 0x3d8dbf95bd198b3dU,
  0x3d96e59b3e02b4feU, 0x3d61ba783ab92865U, 0x3c9501fb3d18bd61U, 0x3da4168a3c9c7977U,
  0xbc6063953d93b91fU, 0x3b880e6f3d8318baU, 0xbdb7eb8f3d76296bU, 0xbd3dd4033c47d6cdU,
  0xbb0326263e330917U, 0xbd9e1b8a3ab1f081U, 0x3d0a3e1ebcbfeadfU, 0xbd3909eebdabe81cU,
  0x3d102a6a3a7bb277U, 0x3d820d84bd11ee29U, 0xbd30a71abdde52b2U, 0x3dd7eaebbd1322d7U,
  0x3d0703a1bd99c716U, 0xbd06ce54be2c8b33U, 0x3dfe20bcbd31c1c5U, 0xbc31f1eabe3a73d4U,
  0x3dc8567fbd0768f9U, 0xbd7be3b2bd2fde46U, 0x3e0922e53e044e29U, 0x3d8f500f3e00fe1bU,
  0x3dc325483d0c452cU, 0xbd4689843dc8f39aU, 0x3d944136bc078f3bU, 0x3bbcc3c33c8fd9c0U,
  0x3e060aa43d88d184U, 0x3e02d930bd5cfba4U, 0x3b1b9ed23d39c349U, 0x3dc534e8bdea2b61U,
  0xbda865e53cbac4cfU, 0xbd8c24babd8651d4U, 0x3dd5c97abd0a94cbU, 0x3b9b0eb7be2648dbU,
  0x3e2286633d02396dU, 0x3d80e2203dcbd4d2U, 0xbd5020bc3e1ed18aU, 0xbc11bb043e0b7e07U,
  0xbdab77a5bd5f478dU, 0xbcbf7cc2bdde590fU, 0x3ddb76333e238fbaU, 0x3cce2c943d9a8f90U,
  0x3cf48a523c2bb1f9U, 0xbc92ca1b3d7924daU, 0x3bb64ca43d3e357fU, 0x3e098b5e3c046aa7U,
  0x3dcb2dbcbdfb682fU, 0x3d3990febdcbe950U, 0x3cbfbfb9bcdc95d2U, 0xbc032cecbd8617cbU,
  0xb9355ac4bcb6715cU, 0xbc7666113bad53e0U, 0x3dee1ffdbbb2b5e2U, 0x3d5acd8abcbc7499U,
  0x3dc6ded23d5e4727U, 0xbc26c5423c97763fU, 0x3dfd61b63d9494dbU, 0x3ca5b0753cc6c317U,
  0x3d366894bdc31231U, 0x3c3aa7663da2d820U, 0x3d71766f3d684f29U, 0x3e2e78b23da2c4b1U,
  0x3e093c96bc5c9daaU, 0xba142eaebcdbc41dU, 0xbc7063a93db6213eU, 0x3c835c8d3a1effb2U,
  0x3e4bbe453d46e0bbU, 0x3dd1e12b3ddb8fadU, 0x3d239baa3cdb0929U, 0x3d6ebf1f3c5bdeccU,
  0xbdb844953e4597a1U, 0xbb5426b93dfb3c01U, 0x3ce842423e0fb55cU, 0x3d4f4b223d131b48U,
  0xbc065e1abe1aad9cU, 0xbd0e880d3dfe6056U, 0x3d8cbd053d02e9e8U, 0x3dcfa0493df0c194U,
  0x3dda87643dc7908cU, 0xbe21532bbda883e8U, 0xbd16c52cbd9772f3U, 0xbcf40d5d3d993be7U,
  0x3d80f2533d928ff8U, 0xbbc3f9a1bbac2d11U, 0x3d774b663c833a5dU, 0x3d910321bd2b2589U,
  0xbd477e1d3e0cca94U, 0x3d9d3bd53da80fd2U, 0x3ccd2ed03dc1234eU, 0x3cf856593dac4a8cU,
  0xbdbd8a1fbda2689dU, 0xbe3d05053d19e1eaU, 0xbcaadf73bda64447U, 0x3d372b77bd718208U,
  0x3d472b62bddf803cU, 0x3e4704933d0ee684U, 0xbe1c1e8c3d8306bdU, 0xbdbc9b97bdba2d5eU,
  0xbe2b350abc98793dU, 0x3d41834bbe23d9ccU, 0xbbabdce9bcfdd665U, 0xbb9a450bbc486dc0U,
  0xbcc417e83ca0e23bU, 0xbd5741f63d285cb2U, 0xbdb646febe03d742U, 0xbda58be6bc8374ddU,
  0xbd7228d5bb2d1dcfU, 0xbda4f3843d9b3a80U, 0xbcb8172b3d230914U, 0xbd8391fc3dc9d6beU,
  0x3e5d2204be39912fU, 0x3e100822be08b3caU, 0xbe3e3120bd550cdeU, 0xbe0bc11dbde09b78U,
  0xbdffd693be309038U, 0xbd5f2761bdde9882U, 0x3d9f8ac9be103f05U, 0x3ade86473ca63ebfU,
  0xbd9efde4bda774caU, 0xbbdf12de3d554944U, 0xbe10444ebde87839U, 0x3c14da0a3c3ff60fU,
  0xbd4035303b914403U, 0xbd2dcaf8bd9306a4U, 0xbd53a083bcee3708U, 0xbe0624d13d5d7f1dU,
  0x3ca21d303d5f81b9U, 0x3d2b4fbcbe01e480U, 0xbda46d5f3dcc9970U, 0x3d0b08793bef3a90U,
  0x3db74255bde1de54U, 0xbc56fd09bdafe3c7U, 0x3d595e59bde970ccU, 0xbde844debd5e1e54U,
  0xbe1f36253c7bad05U, 0xbc971f753d7714ffU, 0xbd09d69d3dc1c07eU, 0x3d944b173cb55572U,
  0x3ce1852fbd1637cbU, 0xbb9bf1dabe14b168U, 0xbd3feadcbc032956U, 0x3e13e44bbe0c34edU,
  0xbe465c663a523332U, 0x3d6117723d3f9c23U, 0xbc170647bc414651U, 0x3d439692bd63977dU,
  0xbd319e3d3de17984U, 0x3dc8cbd2bc71916fU, 0x3daad2093dbdcf45U, 0xbd580ec63e2e83a2U,
  0x3dd5803fbe2100c5U, 0x3d3aee40bdf973a8U, 0x3cbd423d3dbcfccdU, 0xbd95fb873d379dd9U,
  0x3de7dffe3d009f00U, 0x3bf5c1d6bdad402eU, 0x3d24fdc7bd0abc1cU, 0xbce138fdbe6fa018U,
  0xbe4c9dc53dadf52bU, 0x3b94342ebd4c238dU, 0xbc19d563bd8d5dbcU, 0x3d90a99dbdcb5fdfU,
  0xbd22e2b9bc787247U, 0x3c8a02743c6356a9U, 0xbcb5cee1bd28a726U, 0x3ccd26113bf50558U,
  0x3d126b89be2e49b9U, 0xbd758dadbe63404aU, 0xbc24da4d3c4c9d14U, 0xbdc17620bc262d94U,
  0xbd9983f4bd592244U, 0xbd964ab83b026e90U, 0x3b94c8cebc18666dU, 0xbd0ba55e3d545c0aU,
  0xbd6e86b23b18ef74U, 0x3d096589bce1c4f2U, 0xbce932063d4838c1U, 0xbce44ffd3da1ed1dU,
  0x3c8efc243d510806U, 0xbdc3ccdfbdf8596fU, 0xbd1478cebd74c451U, 0x3d6889793cd60558U,
  0xbd740ba63d803642U, 0xbba6b2f83cf543ccU, 0xbdc4d2a7bc275b55U, 0x3bdf916bbda64e07U,
  0xbd725f8fbaddf243U, 0xbd7d89ddbc744e54U, 0xbdc57b52bca7b0eeU, 0xbdc59d79bd68bd2aU,
  0xbe3c03aebd2a7eb6U, 0xbe0b0d4c3dc239c8U, 0xbd5ba583bc756470U, 0x3dd64f46bd4e519dU,
  0x3d70cd87bd005615U, 0xbdb1f9a33c7f3204U, 0x3dce6296bde77cb6U, 0x3d595e3dbdd201e9U,
  0xbda9eec7bd987a40U, 0x3df795eb3dc3f457U, 0x3db5f0be3d9053a5U, 0x3d9f9f8e3dc57e46U,
  0xbe134f3abe437f3dU, 0x3c574c553c0bca4aU, 0x3ab3546f3d905af1U, 0xbd7d57593d6d4e25U,
  0x3c90eb40bc6295d4U, 0xbddfeea13b036818U, 0xbe0d9a8bbd51dcb9U, 0xbe2b981fbd11949eU,
  0x3dcb10a5bdaaa678U, 0x3dd3cc6d3ad21070U, 0xbd9ebc4abe008279U, 0xbd7800f5bd33bc71U,
  0xbdc654e5bdb88a5eU, 0x3ca2b3333e13b011U, 0xbbe02dc53d5f2c41U, 0xbd698e353d9123b4U,
  0xbda4890cbe2fdacfU, 0xbda6c1e5bca58a77U, 0x3ccd97e3bcc2192cU, 0xbb31a2333db4458dU,
  0x3e2ccccf3d9cd92cU, 0x3b43bb5a3dcd134cU, 0xbdc3afaebcc8730aU, 0xbe1a937cbca1453cU,
  0xbd3c72e1be034e39U, 0x3d585626bc88a6bfU, 0x3da689003d1c29f4U, 0x3dc9ba1ebd3daf54U,
  0x3c9931843c56c6fcU, 0x3d0b52293e10537eU, 0x3d10dc483e076c0aU, 0xbd0f1ec2bd1e07c5U,
  0xbda20380bdc86322U, 0xba32b0ecbd9ab90aU, 0xbd50cbae3d4ce2ecU, 0xbdfd3cce3a9375aeU,
  0xbe0fa42abddca47cU, 0xbe850f6cbd2b21cfU, 0x3ca10e29b9c74162U, 0xbd57f1eb3d1d0657U,
  0x3d9e3d9c3d4e79f8U, 0x3d2a8cfdbca947c1U, 0x3d69cbcf3c8b90e7U, 0xbd837752be5d7ee6U,
  0xbd7fa72dbd2cf615U, 0x3dd4edd33dc3c893U, 0x3d3a49cf3da19f27U, 0xbd1bf2f23de0997bU,
  0xbe47194cbe862669U, 0xbddb247f3b85e224U, 0x3cd7494a3d4a3e83U, 0xbe12b6203c19f8d4U,
  0xbe115509bd748574U, 0xbe4494743d52d2c4U, 0xbe26c56f3cdeaac0U, 0xbe41f230bd84c0d1U,
  0x3ba0dbca3d48ef6bU, 0x3d6ce62bbe2c660dU, 0xbe94fef43bbdbe4dU, 0xbcd22bb3bce61820U,
  0xbd4af307bd763c09U, 0xbb852fbc3b23d012U, 0xbdd4c79ebd6ba1baU, 0x3d49838ebd45cbeaU,
  0x3cb5939fbd6518c1U, 0xbdb0c996bcb6f86fU, 0x3d9dd440bda2f9a3U, 0x3dfcf705bca9a5e4U,
  0xbb47f360bb880a94U, 0xbd7ec3f33e1b7403U, 0xbda35815be331c19U, 0xbd94956a3dd9a940U,
  0xbdfb1b5fbd15f1ffU, 0x3a6ab312bcbe8921U, 0xbd0042e43d9da928U, 0x3d86c18c3db07ad3U,
  0x3c920d31bdcfa672U, 0xbdb205c23d8d64e9U, 0xbb6e47d4bc94bb4eU, 0xbd9dbe3ebe066c13U,
  0xbe806c8dbdbdd66eU, 0xbcc991f2bc36d171U, 0xbde9d2353dba8b6dU, 0x3daf47b93ae27899U,
  0xbd9064b43c647df2U, 0xbe30fe53bd2b6844U, 0xbdedf9e73d632fb0U, 0x3d86af80bcbf8676U,
  0x3d97b67bba25309aU, 0xbd106edcbdda2f5fU, 0x3decbbf6bc9e7d5dU, 0x3dab88d0be12c6a7U,
  0x3d64b1b63d036417U, 0x3d002e45bd9b1cd9U, 0x3d6ad3a83c19de5aU, 0x3d89e5b0bcfa1fabU,
  0x3d53b6e5be2c1ff7U, 0xbd9548dfbd914650U, 0x3cd043d5bc925ce1U, 0x3d2634013cc39bf5U,
  0xbde292483d276a1eU, 0xbc81b2d63c433f76U, 0xbde8f7f1bc9590f5U, 0x3c25f87b3ca93537U,
  0x3d56a52d3d8bbd83U, 0xbd1de0a33d00ec2bU, 0xbd6edc353d1efd29U, 0x3ce48b4e3bdb8635U,
  0x3d5e8e96bdd81b63U, 0xbd096e0e3d904ef6U, 0x3d53a54ebce86c58U, 0x3da7138ebd5133c8U,
  0x3c181cdebdd0306cU, 0xbd19e1863d2eac5cU, 0x3d823815bcbc4144U, 0x3b5b9c5a3dcadb6fU,
  0x3e03f971bc35c51eU, 0xbaac275c3dbef63bU, 0x3b8afab9bc578f60U, 0xbd9e7db53b45e93dU,
  0xbd850137bdaf9e13U, 0x3b2dddf13d34a6acU, 0x3ae35c713dbf4e4aU, 0xbab336b53c973d94U,
  0xbd1742733bab228aU, 0xbd722b4d3c3b2397U, 0xbd449351bdab927aU, 0x3ca6f0d83c6145b8U,
  0x3dadd4a93dbb5015U, 0xbd0ed282bd82d7b5U, 0xbd1d7e1fbe4aae52U, 0x3dbf2784be2a1f2fU,
  0xbe779afebe121253U, 0xbe3fc4d3bed0856cU, 0xbc24f644bd930eafU, 0xbd5b110cbd09dea8U,
  0x3d45b445bdd40e0eU, 0xbeb2150d3da7034aU, 0x3dcdec99bdc8ae30U, 0xbe8235193cab948fU,
  0xbe431418bd220e53U, 0xbd1a1418bb31b742U, 0xbd0781febda086c7U, 0xbdc39db4bd8de86eU,
  0xbdae77ab3dfa928aU, 0x3c3617513d8412f0U, 0xbe32479f3dde6481U, 0xbd9b73663db95d3eU,
  0xbdcd54e83dc84e3fU, 0xbdc7a4403cd07251U, 0x3c19e9d63c713246U, 0x3dc5ff163d9df927U,
  0x3d1aaeeebd05bb37U, 0x3bf0deb7bd574647U, 0x3d345c34bd88392dU, 0x3ce8f505be0efaafU,
  0x3aa802e6bc8f7b21U, 0xbc96c526bd2a2c58U, 0x3d2521d03cc4f902U, 0xbc909366bd4217eaU,
  0xbe0780d5be0b8cb3U, 0xbdfcaeb13db6ee9eU, 0x3cbdb2133dc436beU, 0xbe4783b33d6d514fU,
  0x3be029f2bcc7ea91U, 0xbdf131a33d54ac9fU, 0xbdb8c8513d81443dU, 0xbe1ce68f3e091c2dU,
  0x3d609ec43cc46f3bU, 0x3ccd677e3c75e079U, 0xbcb8a29dbdcc7307U, 0x3d90cbdbbe316790U,
  0x3cee9f58bdf862b5U, 0x3d1036523dcac296U, 0x3d17abd73d3661eaU, 0x3c4c0a6d3cf7aee9U,
  0x3d9c9ce83c89bd13U, 0x3cb095cd3daccaf3U, 0xbdea207abd12d649U, 0x3dcc8d3dbd21f2adU,
  0xbdeb0d27bc1e1ee1U, 0xbe12fde8be431e46U, 0x3daa7088be05d9f1U, 0x3c1c326ebe35874eU,
  0xbc89d9ee3db3d83cU, 0xbeaddb4abc96fcafU, 0x3dcddf41be4dd69cU, 0xbd7f830dbe085855U,
  0xbdbf1c2a3c2c842eU, 0x3ca1c085bc3443b8U, 0x3db07e42be0608d7U, 0x3c9f0fa7bd668479U,
  0x3c34a500bddd396bU, 0x3c9f4d2a3ce45d49U, 0x3da3669f3dc8fa3fU, 0x3d0df4f73ca42cf7U,
  0x3c08be4c3cc6e7e0U, 0xbe3a6cb03d8bff4fU, 0x3a325e7a3d6b75e2U, 0x3ce08c7e3ddd9138U,
  0x3d1f5214bcf94619U, 0x3c3ef4d73d5e3983U, 0x3db0c5d3bdff4b61U, 0x3c70d536be014954U,
  0xbc6373f5bc303f1aU, 0x3d9874c83df10a77U, 0xbd87777a3d8525c5U, 0x3d69252a3cad62e6U,
  0xbe2f1e0dbe393083U, 0xbe98077dbd3fe213U, 0x3d1c991ebd397115U, 0xbd8117e73d1622e1U,
  0xbd42d3b53d144ddaU, 0xbe01bf3d3e2e834fU, 0xbeae5e18bdbf0cc3U, 0xbe8100153e2897d7U,
  0x3d497c6abd0fa66eU, 0x3dfc22fcbe4c601aU, 0xbdb9eb35bdf6a714U, 0x3db1fcd8be237cb2U,
  0x3d671c65bd82f113U, 0xbd65f20dbdb9ab58U, 0xbd911bbd3cd54600U, 0xbad3692fbdd2e8ebU,
  0xbcc216f33d00e35eU, 0xbdbf64323d14075bU, 0xbdedbeff3cb4665cU, 0x3c8dd7e7bd2d8fe2U,
  0xbce40e40bcdafa5eU, 0xbe3f05943dbf7142U, 0x3bef0a3bbd44028dU, 0x3d8956d33e13de4fU,
  0x3af85e0a3d631eedU, 0xbda02ff83c87430cU, 0x3d00d13ebdd9ec08U, 0x3d13911ebe617db8U,
  0x3d77c96e3e1e81a8U, 0x3d3c7ed73dd424cdU, 0xbd485564bc74ad7cU, 0xbd4cc6d8bd08a196U,
  0xbdde77f7bdbb4657U, 0xbc2cb09f3d063501U, 0x3c104d3cbc720a21U, 0x3cd3c08a3d4e7522U,
  0xbd968399bc38a26aU, 0xbe2fb6323df14901U, 0xbc832ba33d80e5ecU, 0xbda3459e3de79a47U,
  0xbcf2fd4fbd61757bU, 0x3d455b06bd8ffa23U, 0xbd77e9b03d1dbcb8U, 0x3d32280fbce30434U,
  0xbc6813573d211e75U, 0xbb9f104a3daadaf7U, 0xbd384a9ebbc8b32cU, 0xbbdd4c58bcdc0540U,
  0xbe09659fbce22bdaU, 0xbd2a1573be251629U, 0x3b1c21e0bc2dc148U, 0x3d25cbc5bd13481cU,
  0xbdd7e6ddbdcc0a06U, 0xbda784d13df8bfbaU, 0xbd140d36be07fcb5U, 0xbe3fe7f53c0f9112U,
  0xbe22587dbcb5df02U, 0x3d39701abdcc5f60U, 0xbdaea06c3d0e2f4fU, 0xbd01fce8bdbf9970U,
  0x3cc791a1be452063U, 0xbc0453acbd9c7672U, 0xbe2a290cbdb3e711U, 0xbd3b9348bd4173ecU,
  0xbdb76d903a81174dU, 0x3b68a5d63db17132U, 0xbd6450b83ae7d2c3U, 0xbdc03fc1be0d1d63U,
  0xbda3eb7abcb92ed8U, 0x3cb7c5e5bd2817b6U, 0xbdf4d6953d382d7eU, 0x3d49f241bc393debU,
  0xbbfdd431bdc676b9U, 0x3d6c7280bd527104U, 0x3d644429bdc6199cU, 0xbdaab645bdeb19b5U,
  0x3b8b2966bc89e43fU, 0xbc2bf5913d1d1005U, 0x3d6c07e6bbbefb8eU, 0x3d837ee73d379871U,
  0xbd86c2083d1ece61U, 0x3d6c7674bc6c637eU, 0xbc72659aba3cbe49U, 0xbd3f2de1bc670708U,
  0xbbf3c8313d5c9de4U, 0x3c83e9cf3b43feb8U, 0xbb0c2d89bb15d770U, 0x3c942fbbbcc4e28cU,
  0x3e0d0894bc0fe060U, 0x3e07cb2f3cc915b6U, 0xbd8e20783b14a99fU, 0x3e2782ff3ced0ea0U,
  0x3c9283c13d061e76U, 0xbbe5610ebd151d7cU, 0x3d01e0bfbc303122U, 0xbcfa10b2bd1bbd87U,
  0x3d9864523df63c6fU, 0x3db76d25bd6a48feU, 0xbdab0b18bd2a98fcU, 0xba60b39ebbf0c16eU,
  0xbd6706823da04dbdU, 0xbd42fdae3cd4fc95U, 0x3d96d5c93c640167U, 0x3dcd1971bccd8f47U,
  0x3e0ec7ac3d40f8eaU, 0xbd189045bd36f2f5U, 0xbde0af913d5d532bU, 0x3df918f73dac4065U,
  0xbd27da42bd06f5b3U, 0x3d7b17bc3be12b36U, 0x3d59044d3d8f3295U, 0x3ca746bc3dd16853U,
  0xbe3bc477bcb286a0U, 0xbe25e1e03d54b0a8U, 0x3d6c3c023b5e3c16U, 0xbcb839dd3bc018caU,
  0x3da109b2bdfdf12aU, 0x3d8fe4b7bd29a93bU, 0xbdffba7abda8bae1U, 0x3d0b8101bde3a59cU,
  0x3dba6286bddce04cU, 0xbdf3ba5cbd5ac033U, 0x3e08bc9dbe3c4caaU, 0xbe176407be12af11U,
  0xbddfb4ffbd921aa6U, 0xbd9413c83db63cc9U, 0x3ba356e33e1499f6U, 0x3cf601a0bd32bf27U,
  0xbd642d4cbd30f969U, 0xbd99325c3db05f71U, 0x3da91ebe3d006adbU, 0xbda0efb13e0039eeU,
  0x3dad09a6bca05da8U, 0xbd82d166be0c3f01U, 0xbdb219dabe31803dU, 0xbd9841fbbe04d881U,
  0x3c9932cf3cfa83d3U, 0x3c101127bcfef212U, 0x3db5fba43d83e0deU, 0x3d45f2e93dd469f7U,
  0x3d6b78163e35b39eU, 0x3afb35003db380b7U, 0x3e35b0c3bd87b3e4U, 0x3dbfd17f3d85d0f2U,
  0xbc3647edbe29e205U, 0xbcb989363bdcce8bU, 0xbc9381e93c93475cU, 0x3bc25fd33e058038U,
  0x3e6d98643d35dd98U, 0x3dbeb83fbca1860dU, 0xbdc20067bd289428U, 0xbdcd74f3bd944a93U,
  0x3b0aa7f5bc741684U, 0x3c8dd7443dbab270U, 0x3d8c4267be085d85U, 0x3d720a623d5ce51cU,
  0xbd9292543e037608U, 0xbc3c9e283dd8a359U, 0x3b5f02d53daee829U, 0xbcd6ab1d3da0aedcU,
  0x3da19b0b3d85bcf6U, 0xbd7a4c7bbdf4a223U, 0xbdc75240be8aeacaU, 0xbe1b4c39bdf9a428U,
  0xbd4ff66cbd79b286U, 0x3da6ff42be064a62U, 0xbc2f109a3d16eaf5U, 0xbd8d9b2abdaecfc2U,
  0xbe15bc20bddc654aU, 0xbde45866bc134428U, 0xbd9b02973c0b5350U, 0xbe29cb703ca0d252U,
  0xbe0e21c8be2fb5aeU, 0xbe8504e5bdd5838aU, 0xbc0f49f3bddcbca0U, 0xbe83e71cbe6f78e9U,
  0x3dcd5bc03d685dbaU, 0xbd1e0e0dba4726d1U, 0xbe584736bdf1218cU, 0xbdd167fe3dcf7a89U,
  0x3d9824a4bd3fe9e5U, 0x3e87d4c9be66c2b6U, 0xbdc00dbfbcdd4a76U, 0xbd68bb48bd8b933cU,
  0xbe125f20bdc79524U, 0x3ba32ebdbde8244cU, 0xbd82f2823d6209dcU, 0xbe6eec353e73d2bbU,
  0xbd9fa026bdd0593bU, 0xbda815bd3dcce502U, 0xbde222a1be58b368U, 0xbe3f3d73bdee6e86U,
  0xbc60f22b3c8ef09bU, 0x3d76db3abdc24d5bU, 0xbdec7acebcc87c6cU, 0xbe35f9233ddc7f0bU,
  0x3d0c6e02bd428837U, 0x3e34dd27be1483e7U, 0x3da07670bcea3ae4U, 0xbd96b8f73d407e0dU,
  0x3bfebc77bda8b1d6U, 0xbd4cbf2a3ceab0eeU, 0xbd9992783ce82b37U, 0xbcd7a0553d1e1fa1U,
  0xbe50bdc8bd30a198U, 0xbdb901613dbcbeffU, 0xbe107e3ebca35cd0U, 0xbdf96d25be10c8b8U,
  0x3ba2e7353c30b7d6U, 0xbdb274d93c5b3d87U, 0xbd4189eb3cc05df8U, 0xbe133c6abd90fa3aU,
  0x3da71987bdde8c89U, 0xbdaccc98bc85857aU, 0xbdd89bb03d8b64dbU, 0x3c97ff923d3e7ca8U,
  0x3d8db0d0bd35c64bU, 0xbb00b977bc3d600aU, 0x3cbe70ddbdd61070U, 0xbcb979ec3d26735cU,
  0xbb803ea9bcc684a8U, 0xbd8c7460babf5f8fU, 0x3d8de9903a9c7bfdU, 0xbb1255173d14e13dU,
  0xbbccaf433da1f952U, 0xbda0ff323c2ea216U, 0xbda491973d69771aU, 0xbd88a51c3d924198U,
  0xbd0c774dbce73c26U, 0xbdc7ce233da90734U, 0xbc141ff93e054725U, 0x3d870b1ebbe4a19aU,
  0x3e07ce49bce8e492U, 0x3dd6f18ebb89e36eU, 0x3db11e9d3de54ad6U, 0x3cc1b581bc892340U,
  0x3dde78ea3c4f9af6U, 0x3c1f08e83adc78a4U, 0x3c95aa083e158441U, 0x3dde6e673d7941fdU,
  0x3b0ab7943d8c5764U, 0xbcf7e33bbd858226U, 0xbd838018bd451536U, 0x3de0e5f53d9260f9U,
  0x3c3b19d63d9e853aU, 0xbc9bc578bd51febeU, 0x3daa5aae3bf59595U, 0x3cbd112e3d3398c3U,
  0x3d7afdd53da0374eU, 0x3db4183dbd9eeedfU, 0x3d1b1d8e3bf150e0U, 0x3e01e1bf3d9ea1f3U,
  0x3c4f571abdd0eb90U, 0x3de85c07bc3bb91fU, 0x3d95c5f6bd27b163U, 0xbcc9ca0c3c0922f4U,
  0xbe3ddad43ae22695U, 0xbdea3022bc864221U, 0x3d88fe20bd8f38c9U, 0xbdb69822bdf75f65U,
  0x3dc7bd4bbdcdfafaU, 0x3d1fbf20bd5795cdU, 0xbe0abf5abde30e03U, 0xba179357bd57a308U,
  0x3d7b68fbbe5a200dU, 0xbd577131bd9486a1U, 0x3e18bc92be1893bdU, 0xbd8dda94bd8a9734U,
  0xbe34b661bd1516baU, 0xbd53a273bdb91894U, 0x3db184253e005444U, 0xbe055d77bd6ec5c1U,
  0xbd4a781a3cbe6d9fU, 0xbbc2cae83d1fc465U, 0x3e326ae13cc37276U, 0xbc9f250f3d1b0b00U,
  0x3d8da134bd63f827U, 0x3d1df0f6bda85a5eU, 0x3cb47cd0bd7ce059U, 0xbcd4c389bd0a9336U,
  0x3c28d5783d87cd60U, 0x3d0f18673dde5968U, 0x3cd0e7fe3dbd162cU, 0xbcee24fd3c8016f7U,
  0xbd7cfb923d55d05bU, 0x3c84e0853db4028cU, 0x3e2059383d152985U, 0xbce9d2283d54ed74U,
  0x3d95eeefbd000f08U, 0x3de021c83df55777U, 0x3dd8dd1bbc50a3edU, 0x3e64d3ac3e5c339fU,
  0x3dbce92e3c3b0b5fU, 0xbd33203dbcd647a2U, 0xbdb1eaf33cc0ed66U, 0x3cb71aa13d6883a4U,
  0xbd76a3cdbcb4fe71U, 0xbd560b5a3dfc14b1U, 0xbc3ead43393baef6U, 0xbd4359893e137fccU,
  0x3d5ab0883e64fc8dU, 0x3d1b0aa83cd1f5b4U, 0xbcad4afc3a9329faU, 0xbc67531b3d82eddcU,
  0x3d65b05c3d5a451bU, 0xbca2bc3cbd4ecb39U, 0xbdd9e4a0be684095U, 0xbe17b5d8bda6d72dU,
  0xbd2a964cbdb78513U, 0x3e7906963d1dd305U, 0xbdc0441b3d5dc031U, 0xbe03cd82bd2bcc17U,
  0xbdd561673d318776U, 0xbc18b2d2bdfcdb79U, 0xbd9b0dd43d8c3ff5U, 0xbd8e37b13e1cc93fU,
  0x3bcf8abbbe548c22U, 0xbc662c93bd8de838U, 0xbd5f357cbe66ac09U, 0xbe0e5463be3b5a7aU,
  0xbc66c251bda46514U, 0xbe244da7bda18583U, 0xbdd0e1fabe2b6553U, 0xbdaa819c3d3bc90dU,
  0x3da5278cbdaa4f0bU, 0x3e9c4aacbe641a22U, 0xbe4747c1be250ad1U, 0xbe1d26d4bdb011d5U,
  0xbe262921bd8fea9cU, 0x3cd41397bdd9c137U, 0xbd4d11063da4fc01U, 0xbe012fef3d8f6414U,
  0xbe6f9515bdc92f49U, 0xbe4673553e0588bfU, 0xbdbe8d0ebe5a3aacU, 0xbe1de94abe2250e3U,
  0x3deca092bca85823U, 0xbd987e13bda96bc2U, 0xbe125ffdbdb01d09U, 0xbe46095b3d96501bU,
  0x3e099b0cbe0c5b3cU, 0x3e096ab5bd539458U, 0xbdf7fdaebe42e9caU, 0xbe51d6013d83de5eU,
  0xbe0658afbd869bc1U, 0xbd9cd70dbe07d0f1U, 0xbe0f1addbdacde6cU, 0xbde54e153d42b877U,
  0xbe97fe24bda194d9U, 0xbe735d873de0242aU, 0xbd2acb9ebd66e146U, 0xbdb692f2be47e5c1U,
  0x3cc58b1d3d8ea7a1U, 0xbd93c06bbd9f4353U, 0xbd0445bdbd383eecU, 0xbcd1df7e3da88f22U,
  0x3d0f4bbbbd9d9cb3U, 0xbe05554d3d9831e2U, 0xbc8b7ba5bccb1502U, 0x3d4352ae3cb8c975U,
  0xbc9738debdc525caU, 0x3c4a35e73df3c5d9U, 0x3d91db6bbd9e368fU, 0x3a804f04bdddd7d6U,
  0xbdd932bf3c2e06d4U, 0xbd1521ccbde89361U, 0xbdbeb070bd0f46a7U, 0xbd1a667f3d001000U,
  0xbdc723f4bc4d9b79U, 0xbdfceb1ebd9f2a39U, 0xbcf832d3bc1b39ceU, 0x3c3a58fdbb1d3233U,
  0xbd015a3abd9e5070U, 0xbe14ac273dad95feU, 0xbe3bfe89bda77998U, 0xbd9f9b0a3e486261U,
  0xbda40494bca4afd8U, 0x3d5b7dc3be2e101eU, 0xbdb076dd3cfa414dU, 0x3d7d2577be38db8dU,
  0xbd457d54bdf38b82U, 0xbdbe70aebd330b35U, 0xbc2b2121bd1bf919U, 0xbd33223ebcd253b6U,
  0xbbc924343da62549U, 0xbd1e6b57be495ab2U, 0xbdfde3fcbe7d29b8U, 0xbda9480bbddef53dU,
  0xbe801cfebe574e61U, 0x3d0f2e93bc2f9838U, 0x3cfafbdcbe88ede1U, 0xbb5046f03d6a2b41U,
  0xbe252656be357293U, 0xbd8568d8bd29e70bU, 0xbdda372bbd7d5682U, 0xbd656bba3ccce239U,
  0x3d33e43dbe15a532U, 0xbe0abc43bdde8217U, 0xbd8215b7bc2f0de2U, 0xbe74ce18be4a6774U,
  0x3c8b3b9fbd3a8e24U, 0xbaba6ce0bbe8cfbfU, 0x3c1d68a3bda0a5acU, 0xbdb0bf26bda6ff2eU,
  0xbe275217bd24de54U, 0x3a34b1f4bdb1690eU, 0x3bd812963cb4733eU, 0x3cf656d23da7a0fdU,
  0xbd345c03bb1ef7daU, 0x3d44ba7ebd863969U, 0xbe978570bb431e1bU, 0xbdee1912bd35c7f6U,
  0xbb95cce0ba06db96U, 0xbdd80b7ebd394b98U, 0xbe014741be0f3c2aU, 0xbddff66bbc9ad94cU,
  0x3e03b45f3dfd56d8U, 0x3c362cb1be0dc39aU, 0xbdbd20fcbbb6cd01U, 0x3cd16905be180a57U,
  0xbd42acd2bc7b5f17U, 0x3d05b46bbe26ad14U, 0xbc575f0d3d17bfe6U, 0x3d5d9bd3bdacd49fU,
  0xbde2a26c3c8f22b4U, 0x3cfd118ebdc85808U, 0x3ca635973dda9e23U, 0xbd8a17ad3d9c5ef2U,
  0x3ce59c3abdb1a053U, 0xbcf04fbcbdcab891U, 0x3d358d0d3d9af498U, 0x3cb7524abb555f47U,
  0x3df925a33de19c80U, 0x3d36b53bbe048dd7U, 0x3d4aeb1b3d99eb33U, 0x3d900419bdb51938U,
  0xbe5350f93dd42c84U, 0x3d441bebbd9aa195U, 0x3de3c640bba06bc8U, 0x3dd07c8ebd0f567eU,
  0x3cf951aebc91042fU, 0x3dcd509d3cc20569U, 0x3cf4faea3c981155U, 0xbd18ddb83d83b4eaU,
  0x3c803a973dd0fbdfU, 0x3dd03a3d3c31c30fU, 0xbc195e72be0c0349U, 0xbdeea5d7bc8f07ecU,
  0x3e052156bdb9f480U, 0x3dd7638dbd4e0378U, 0x3d21438cbd0e103eU, 0x3d69f8f13dfdc785U,
  0x3df4307d3d4dd193U, 0x3db87539bdcc6995U, 0x3c9fe991bd760c41U, 0x3c850563bd3383afU,
  0x3a95e7983df15553U, 0x3b42d3943d16c0dcU, 0xbd995bed3dc574dbU, 0xbbd45a1d3e4a9d2aU,
  0x3dabcc5fbbd4fdbaU, 0x3daa6baf3d1f661fU, 0x3c4ee9433d16b81fU, 0xbc7a228c3d9194daU,
  0x3dd7a40a3d829bbbU, 0x3d1743b03d1f8e2fU, 0x3c9490e83dffa82cU, 0x3e47349c3deb6c4eU,
  0x3d60419c3d7ebe49U, 0xbe10d0bbbd85d927U, 0x3e094e453da5f1a0U, 0x3e4a0bc9be26e54cU,
  0xbcb1aa503e0b379fU, 0xbcb026283dcb7943U, 0xbd0ba1c23d5d9b81U, 0xbd652b253dfa72b9U,
  0xbd6e6b883e978920U, 0x3d4b22533d3fee28U, 0x3e246ab23cbb190bU, 0x3d281e1e3df9cd12U,
  0x3db91c38be4cb731U, 0x3d265a7a3e2fb35aU, 0x3d1649303aee0123U, 0x3e5f358a3d2ee1a1U,
  0x3e31aec13d883ccdU, 0xbe0d1f28bc7bda11U, 0x3d7f1e003ccbf704U, 0x3b0907dabcfca7dcU,
  0x3d8271753e032128U, 0xbd1c08423c5b5d4aU, 0xbe68124abd4e0d71U, 0x3e050e56bb3e4dc6U,
  0xba61e7323e63b922U, 0x3dbcd47fbd87eddfU, 0x3c19059f3c44e223U, 0x3dd027b03d13e633U,
  0x3da28e083e312024U, 0x3c84c404be1e7672U, 0xbddc573cbded8c39U, 0x3dd253b2bd87466fU,
  0xbe8ecbdf3d688cd8U, 0xbdcea19dbe199eb4U, 0xbd177a763db90f77U, 0x3def030b3be3ed58U,
  0xbce4546bbc90d56aU, 0xbd0b9abb3d991c0eU, 0x3d38c0c4bd080da1U, 0xbd9a0f943de0cb45U,
  0xbcf079ca3cef22d0U, 0xbd2de0e2be6237cdU, 0x3cc51c11be1b7e9fU, 0xbe13e500bcd5a96bU,
  0xbccf0dc93d3a8f9dU, 0x3d48ad783bd6b41dU, 0x3c0a238f3de7821dU, 0x3d85a7cc3e04f748U,
  0x3aea889a3e30176dU, 0xbdd4658d3dbc3e23U, 0x3e2e1ab13d8476a1U, 0x3e0763963c54d75eU,
  0x3ca08fee3d740f0eU, 0xbdca2f0d3da9d76eU, 0xbd640ae23d0a30b2U, 0x3d8249e0bdbb3418U,
  0x3d21bb373e7e9308U, 0xbdac815bbb97a3c1U, 0x3cf0fb77be087ddcU, 0xbbd2ac913cd21d72U,
  0xbe384d99bd447b3eU, 0xbdc4a62b3d16d109U, 0xbbd2739d3dc3bca1U, 0xbd60826e3e014488U,
  0x3a2a6e1c3dd03b8dU, 0xbdd79b253d419335U, 0x3cfa22b03dba3d86U, 0xbc98e83b3e6a81a5U,
  0xbd89f789bd5ce742U, 0x3ddca6a0bd3ca994U, 0xbd66b844be273ae8U, 0x3d73a69bbe2008fcU,
  0xbdca778b3e052d60U, 0xbe0791413c907a12U, 0xbb0ee64f3db93274U, 0x3d9c22c13c1d9fbdU,
  0xbba5690f3db3e55dU, 0xbcbff6f9bc5ad312U, 0xbd4d669c3d8ed26fU, 0x3e2707cd3ca59f91U,
  0x3d2f27553e25f607U, 0xbe3f08463d7b47a2U, 0x3dd888893dc75e5bU, 0x3e24c1543e0bf742U,
  0xbc99b4b43d6234dbU, 0x3d58e23cbc988838U, 0xbde9559abe04b409U, 0x3daf828dbcf9518eU,
  0x3d4e0dc63e883edaU, 0x3d2671083db0aa4aU, 0xbdcffc963dd6754eU, 0x3dc2e1e73d854c2eU,
  0xbdb4bf84be0c8f42U, 0xbe2455ae3dd7ee6bU, 0xbd55fc41bc2d273dU, 0xbb2dbf6b3e21a769U,
  0x3ca709eebb71e452U, 0xbe020a853e0db753U, 0xbe25ca463e117cefU, 0x3c99bf703e045a3fU,
  0xbd0f6279bdb2318aU, 0x3c84b99abe037932U, 0x3d01366c3d184481U, 0x3da766d0bd6d26e4U,
  0xbc130d943d95ef8bU, 0xbd1f95523c919fc8U, 0xbc8648d03dd3e50eU, 0xbcd3d5603d12ac21U,
  0xbd38bb793ae1db1bU, 0x3d5c2ea1bce21073U, 0x3d75a0cbbe12e454U, 0xbe1200913c67add5U,
  0xb9c88618be2df1ebU, 0x3bc1e5b83c821811U, 0xbb98e1ea3dc2fef0U, 0xbd8323383dc451baU,
  0x3e173458bcd02a96U, 0x3d6daf8d3d740564U, 0xbd446d873cf36c56U, 0xbd9f9d44bd12a562U,
  0x3cb371a0bdccab70U, 0xbc6dca29bd8bd4b6U, 0x3d9a55a43deb8220U, 0x3d1ef67c3d883a5eU,
  0xbd8e8790be465639U, 0xbe3c81ab3deef312U, 0x3d5c3a6abe019664U, 0x3dced7483d1a7301U,
  0x3dc362c6bc830a58U, 0x3c8ae1c03d9126d7U, 0xbd82e781bc30961fU, 0xbe2e2993bc500cbdU,
  0x3cc58c6abd97fceaU, 0x3e0952cbbdd8daeeU, 0x3cfa4ed83d93526bU, 0x3de1ea35bdce7507U,
  0x3db6bc723c4cfeabU, 0xbdfba20f3da482fdU, 0xbdb1e9f83e2fd4b5U, 0xbd8b0167bc9e4229U,
  0x3c1e07b5be370147U, 0xbcec711dbd79d3deU, 0x3d308c24be3608ccU, 0x3db5375fbc961202U,
  0x3d9d16fbbe4ad59eU, 0x3e104de2bd5b4381U, 0xbe42e0a4be633c61U, 0xbe046c3cbcdf3b3cU,
  0x3d424ac23cca8d19U, 0xbbcb742cbbb8acc0U, 0x3c21a4303df24cacU, 0xbe0c50563e11ee50U,
  0xbdd227103ca432adU, 0xbc01362f3d937993U, 0x3d8911363d561c56U, 0x3b958513bce3794eU,
  0x3cee2aafbe141acaU, 0x3cf1a9873dc23c91U, 0x3da46854bcc58923U, 0xbd2c9fb1bd7ab302U,
  0x3df45b893d0904b4U, 0x3da48553bd102dd5U, 0xbd79d79f3cebc236U, 0xbcc1e2d1be182a8eU,
  0xbcc3c5ac3cbcbff3U, 0x3d124bebbda12aa9U, 0x3e1de843bd34f735U, 0xbdf792cf3d1bc67bU,
  0x3d35e6323e0a4895U, 0xbd904c323d914b35U, 0xbd278e8f3d64a4b0U, 0x3d92ecffbd92a720U,
  0x3ca71886be5d6ad2U, 0xbce64e173ce0c35eU, 0x3cc9c145bd0c1b54U, 0xbd4aed6a3aa73636U,
  0x3e54a8b83d8fcd86U, 0x3dcedcb2bd89ab34U, 0x3d0808cbbc1df7c3U, 0xbc95000cbcb624dbU,
  0x3d3f6f483cf1b67fU, 0x3d96c6b63bbb73faU, 0x3d217a6d3d3dea76U, 0x3dda69ccbd02ccb9U,
  0xbc99c30a3d3699b5U, 0x3deefaf23d36a5abU, 0x3e02e28d3d8c6656U, 0x3d7f6d523d8dd0bfU,
  0x3cfb353dbd5c0bb7U, 0x3da4b58bbe0a367aU, 0x3cd01282bdef87f6U, 0xbd1149cbbe0356b5U,
  0xbda8e2febd1f2dd9U, 0x3e70fbd33d554ff9U, 0x3da18571bc10901aU, 0xbd8506a1be621c0dU,
  0x3d729aba3df8d629U, 0x3e6d10143d089291U, 0xbc958fd63e49561fU, 0xbd6e6bb33e353291U,
  0x3d6a108abd95e2eaU, 0xbc4e7af5bd62798bU, 0x3d7d35633e362589U, 0x3d595b84bd0f6d83U,
  0x3d57ae18bd7e968fU, 0x3cd92a3cbce24288U, 0x3cd2e61ebe0a17b6U, 0xbbf6040abe372425U,
  0xbe872b22bdd67337U, 0x3e2ad4313df43b66U, 0xbdd3c58bbca95d1eU, 0xbe0a68d6be4ee525U,
  0xbe131269bd93a2b2U, 0x3cc56ff9bcd54190U, 0xbe17c81d3dd4f23bU, 0xbded5db43dd20ebeU,
  0xbda2a585bdf0a371U, 0xbde45ee3bda463d5U, 0xbb9d5c9cbdbc1745U, 0xbe07783ebe0abe66U,
  0xbdbae6f9bc3459d8U, 0xbd890860bd455e6aU, 0xbdf3cb18bb8ecdf1U, 0xbcb0ee1f3dd98e79U,
  0x3e1301fd3923cad8U, 0xbdd0c336be5e0a66U, 0xbcc4a1d93c37be14U, 0xbd00f869bd4202e0U,
  0xbd08df01bcee3d26U, 0xbe895669be0dc6abU, 0xbc8bab3cbdc7907dU, 0x3cb99483bd966b80U,
  0xbe4fa3a13d86cd47U, 0xbc42b442bd7ada42U, 0xbde5801dbc215d85U, 0xbda1b5b2bdaab904U,
  0xbcb567233d019a3dU, 0x3db49e94bc54f8ceU, 0x3cbcdf0abd4526c1U, 0x3db52fc4be26abdeU,
  0x3ddc81893cae7462U, 0x3da2a1bbbdd98bf6U, 0xbce05b193d37d779U, 0x3d948eb8bebd3ef1U,
  0x3cf157923c95de1bU, 0x3cade773bd00b7f1U, 0x3e2cbd1f3d75835dU, 0xbe26e4933d814f6fU,
  0xbdc1859fbdeec347U, 0x3d073796bcaf6c36U, 0x3d443a513b822055U, 0x3d53a61d3ce71778U,
  0x3aa59f85be6fd3a6U, 0xbcc52706be38316dU, 0x3d1707c4bda70e6aU, 0x3c5cbaf4be17ad8bU,
  0xbe812d6b3dde5655U, 0x3e11321d3e147240U, 0xbd4fe89abdb31bc9U, 0xbe119de3bdeea47cU,
  0xbd871fed3cbb8014U, 0x3df1e6f13c983aedU, 0xbdaec7df3e1d82ccU, 0x3bd63d063d75a042U,
  0x3d3f2f16be224b77U, 0x3d968236bd8d3779U, 0xbd15dab43dd22366U, 0x3caba2d73d1f67b5U,
  0xbd4d687e3d5d6dceU, 0x3d195edebc3d7e56U, 0xbe2c36973ad9ccd3U, 0x3dadc9a23d30648cU,
  0xbdc39cc83d8b4624U, 0xbe5f2400bdc0cfa6U, 0x3c80b33dbd6f88fcU, 0x3d862a283db749b4U,
  0xbe153b8f3d2a326fU, 0xbe9649b03d80aa8aU, 0xbdf2620abdff7183U, 0xbc214e68bd22de6eU,
  0xbdd6a3763d0d3047U, 0xbd7bcca5be2db295U, 0xbdcb5afabdca1589U, 0xbdd1b070bd9b3565U,
  0xbd7111503dd35b8eU, 0x3ce580a33e0ccb82U, 0xbcba5669bd7d7d2cU, 0x3b1999d0bc2ae865U,
  0xbc8c66dcbcde206fU, 0xbe7da6003daf0d56U, 0x3cc138cdbd1f08b4U, 0x3e1772a1bda93c62U,
  0x3dcef28c3cd263aeU, 0xbe036b153d2ff4e1U, 0x3e59ef6bbdc6f4c9U, 0xbdb5a34ebe27ff38U,
  0xbd99b80f3dfbebfeU, 0xbdad710abd99cd7aU, 0xbd4ad4dab9e1f87eU, 0x3dc9f586bd6c7cbbU,
  0xbc9d91b9bdd5cc74U, 0x3dfc5ad1bb1d0976U, 0x3d87f1603d208421U, 0xbd39788abd7c6b96U,
  0xbd643f763d8239ddU, 0xbdc2b46f3e1e18b9U, 0xbc348820bd8320caU, 0xbd1ae734bce4a3a1U,
  0xbce5a1113bfb9d12U, 0x3ddcc1933d51404bU, 0x3e40926e3e16b141U, 0x3bd481f43d9be89eU,
  0x3d66e798bc8cb1e8U, 0x3dfbfa74bd757445U, 0xbb7cf5923db75dcbU, 0x3da8fa973d27c5bcU,
  0xb9a3348ebce272dcU, 0x3d8cd064bd296409U, 0x3d92d2253cd275e8U, 0x3d46fd11bdad53eaU,
  0xbca32632bda7c798U, 0x3ce2f2c33e085e9aU, 0x3c242ac7bcbdb0cfU, 0xbde2c196bb5cb440U,
  0xbbd22da1bceb6645U, 0x3df48e413bd3f6c4U, 0xbe285d3c3e0e07c9U, 0x3db6ff833dd28703U,
  0x3d34233ebd0f1dbaU, 0x3db0d77a3d3526eeU, 0xbdca95c7bd681009U, 0xbd179e1b3cc057d9U,
  0x3c906bb73d1c2383U, 0x3c0cd549bd685505U, 0xbd838550bd9c3fadU, 0x3d2bc27bbde46361U,
  0xbd71c197bccce5b2U, 0x3dc079e6bd495ce7U, 0xbd330725bc0fedb5U, 0xbcabb95ebdbc4918U,
  0xbdbbe3c9bd209ad4U, 0x3d2c290abd3c7f34U, 0x3d089dbbbd144afbU, 0x3d40c3923ddfe360U,
  0xbd325de4bcdaba82U, 0xbd819b5abde67563U, 0xbd060f60bd284d75U, 0xbd62eb32be04dc09U,
  0x3d8a03803ce5f628U, 0xbbf6b086bd50ba7dU, 0xbd588cef3cea2978U, 0xbdd824e93d41e3c1U,
  0xbdccb3e0bd8d0540U, 0xbd10d35bbd6474fcU, 0xbd0c8021bcaa2b9aU, 0x3cd0f68dbd9a613eU,
  0xbe1582b7bdd4eca3U, 0xbe1af6be3c866653U, 0x3d365598bd441c44U, 0x3cfb1b1abdc769acU,
  0x3ac7b4fd3d8cf809U, 0x3d0727b1be01e1d2U, 0x3d1368debd49361cU, 0xbd9df07fbba48c8eU,
  0xbd5cb9d0bdfe466eU, 0x3d621688bd2c23eaU, 0x3e0149ea3de15be1U, 0x3e2a99b63d871862U,
  0x3c3e34fb3caa29beU, 0xbc9c46293df6302bU, 0xbc6dc156bc514e3aU, 0xbda546573bfe9d72U,
  0x3be88ac43da0ce01U, 0x3e182301bce9b772U, 0xbdd788463d3fa80bU, 0x3e310a103d92984fU,
  0x3ddd9d95bd959b6aU, 0x3db8e23fbddfed86U, 0xbd3d97d83dc59476U, 0x3c871239bbbc3de0U,
  0xbe313edebdf8db94U, 0xbe5b899f3d00f7e3U, 0x3dad052fbb17b393U, 0x3e03a6603d43f7e5U,
  0xbd44cbbfbdf61614U, 0x3ba6c87abdf17ba4U, 0xbe939b673d1da509U, 0xbe03bd34bda0cb86U,
  0x3ccfcaa1bca82445U, 0xbdb69511be5096faU, 0xbd98f735bda7ceb9U, 0xbdb77044bdc79040U,
  0xbbd54882bd395434U, 0x3a3a50b43d398c03U, 0xbdfb2273bb464eb3U, 0xbc7c5153bd90eabdU,
  0x3cac478ebc884daaU, 0xbd20ff37bb91b603U, 0xbc8e7303bdff3b02U, 0xbafbcc30bca76ecbU,
  0xbcedb073bc51d4b7U, 0xbddf9718bdcac18cU, 0xbc94d7d8bdf919b4U, 0x3d915f8bbde0af58U,
  0xbceaf319be602e65U, 0xbe28a8cc3d2d064aU, 0xbabe027bbe545446U, 0xbd195506bdc40a9cU,
  0x3d7dd5613d757babU, 0xbdd44487bcc4bae8U, 0x3d512666bd57be4fU, 0xbda16471bd87fee6U,
  0xbd1d16b4be70cfc7U, 0xbd555c693d17540fU, 0x3d5b1e603d926b4cU, 0x3d87cf3a3dcace28U,
  0x3c5ce2c53e1d505dU, 0xbd1fc85b3de9733cU, 0x3d5b1c41bc4ab571U, 0xbd985f693dc2fe08U,
  0xbcda9dd6bc771518U, 0x3dfcfcc7bdb9e30bU, 0xbe1505313dd8388dU, 0x3d9174003d29ff2eU,
  0x3e299ef23dbd5196U, 0x3d88d2603d89a60eU, 0x3ce0fe7e3ab8e679U, 0x3d1d41813d7fb04dU,
  0xbde3c8a5bdfad0f1U, 0xbdc90c5bbda31685U, 0xbdd012a4be368b4dU, 0x3d0a416f3b8bc814U,
  0xbcd7d60abd442285U, 0x3d131f4dbdd46eeaU, 0xbe01b36fbd09d202U, 0xbd7f42b0bc63409bU,
  0xbd95adf5bdea6b9fU, 0xbc3caec3bc664036U, 0xbdeea8eb3cbfe1c0U, 0xbd95b2253d016ef8U,
  0xbd7e5378be16ce30U, 0xbdb0d522bde7a6beU, 0xbcf3d9f0bde13607U, 0xbdac5f40be457692U,
  0xbd1e94d13c02ff24U, 0x3d13c329bd165311U, 0xbd832d1fbc2d407eU, 0xbdd28d91be2fec54U,
  0x3db6cb62bc8a7583U, 0x3cfeb951bdebb0d5U, 0xbda12e59bdbe14cfU, 0xbbdc72bbbd10e826U,
  0xbd6ec77a3cd3d8f5U, 0x3d426ecf392c85a5U, 0x3da84f1abd5919deU, 0xbd32b631bdf84754U,
  0x3b9efed63c755479U, 0xb986e336bc11566aU, 0xbcfd05b1bd1f83a4U, 0xbbc2cef0bc05d5eeU,
  0x3d9d242bbd0d1d59U, 0x3bd344d63cf06287U, 0x3b34ee543e0daaa5U, 0x3a003f5f3d2436b6U,
  0x3d786a423d215e26U, 0xbd6514f63d21dae8U, 0x3d983e04bdf38ae3U, 0xbc6541493e0d4f3cU,
  0xbb5d95f83df9131fU, 0x3c8838943d1411f2U, 0xbe1340413dbde916U, 0x3c2de10b3e07bb6bU,
  0x3d363f22bd7266afU, 0x3d04cd5f3bd19d1aU, 0x3d1700c63d24b8eaU, 0x3d0a60e33de71f90U,
  0x3d85ec95bc11471fU, 0xbbb1d2df3d804162U, 0x3d26186bbd1f71e7U, 0x3b10ad36bc15421bU,
  0x3dcf068b3b5ff3e2U, 0xbdf46f0bbc85a22bU, 0xbd57ff47be247a84U, 0x3d629c49bcb1630fU,
  0xbc8830c0bdb4027eU, 0xbd7edbf53d715062U, 0x3d5b9a32bc319d1aU, 0x3df3b2933a131ecfU,
  0xbc01cf293de7e3e2U, 0x3b434e203dbc12d7U, 0x3c8960f6bc8ecd11U, 0x3da5f5e03ce6d8f6U,
  0xbd44aa483daa298aU, 0x3d6431253ddc5c59U, 0xbdce02dc3da2aa41U, 0xbd4dd5b4bdba5fd1U,
  0xbe237db9bc9ee702U, 0xbdc31cb13d613f03U, 0xbc91ddc43cc0a0ebU, 0x3da0e488be28c720U,
  0xbd46c0613d8947afU, 0x3d2a90e03dfe34fcU, 0x3db515d53ceab9faU, 0xbb9eca7a3c406ca2U,
  0xbdc09fd5be021ee4U, 0x3db2d8fbbd3993ceU, 0x3e19b3d8bbf722caU, 0x3db236aa3c21ce35U,
  0xbd7c981abc644db3U, 0xbe05ea7bbbaea012U, 0xbdf9afd3bd71b445U, 0x3d2ca50d3dc91838U,
  0x3d333355bcbe8a74U, 0xbcf9c8503d903bfdU, 0xbe1fd981be17acd8U, 0xbd9fe5bc3df785f2U,
  0xbdbc3912bdc8ba5dU, 0x3d21d5ec3cf268c6U, 0xbd91790abd8cfa6fU, 0xbdd3c71e399cfc02U,
  0xbbbe3ff6bceb63a3U, 0xbdd6c3e13bfc5031U, 0xbdc66825bd798dfaU, 0x3c0ffbcdbc229852U,
  0xbdc927debcc9e455U, 0xbdfc00a63def3b6dU, 0xbcf998bbbd191702U, 0xbdcf2072bd164d39U,
  0x3d3a420dbd9a8512U, 0xbdec5f48bdabe519U, 0xbd992bab3cea94fbU, 0x3c2234fdbd111066U,
  0xbd90fda0be22bf0fU, 0xbdda0607bda24a76U, 0x3d8bf285be6b2872U, 0xbe0b493cbe3058a0U,
  0xbd1b332fbdd3bd45U, 0x3ca854983b5eb89eU, 0xbd8f24aebca3ce1dU, 0xbe1e1eb1bd940afbU,
  0xbd841e7e3e0be63dU, 0xbdb4dc833d9fae1bU, 0xbd32917dbd64feecU, 0xbcab28edbdd4a75fU,
  0xbe1c07dc3cb594a8U, 0xbe768aba3e32f3c1U, 0x3d2414483d881be5U, 0x3ce35f67bd5a2205U,
  0x3e02e452bbda2fd6U, 0x3d9efcae3d17e009U, 0x3e2739473d8b083bU, 0xbd12fa2bbe337fb3U,
  0xbd8b1ec23d373c66U, 0x3ddede253cbacdc6U, 0x3dbbc946bc7575adU, 0x3dac9b443dfd1b87U,
  0x3da0f395bd93f310U, 0x3e0e859fbd895ce7U, 0x3d0a84c2bc9906f1U, 0xbe21b4e7bcc79c96U,
  0xbcf09d833e02e59eU, 0x3bb95b30bcd16327U, 0xbcdf6ba03d903cb8U, 0xbb8d8e6ebdd8893cU,
  0xbd5cb63a3de8ac35U, 0x3c7626a4bd01df20U, 0x3d4d9b223da8057cU, 0xbe24876c3e0fdc9fU,
  0xbd7ea072bda653a0U, 0x3d36e48bbc988bf8U, 0xbd84c820bde88c74U, 0xbd25368dbdb5d5bfU,
  0xbbed79ca3ceba59eU, 0xbce2b8653d530cc0U, 0xbd05d8e6bd48bd14U, 0xbc222f8fbde56b9aU,
  0x3b6d0fa63d63f1caU, 0xbbc2fb09bd732e60U, 0xbe0247963d425870U, 0xbd832627bda2a94eU,
  0x3d072ca63c9ba5bfU, 0x3ce555cfbda9a724U, 0xbd44ca86bdac42c9U, 0xbdc5f781bd9d880fU,
  0xbccdf199bdc45e77U, 0xbd050641be2a906aU, 0x3c11fb23bdf104b1U, 0xbda2883c3d2fd53fU,
  0x3c0abbcf3e1ad98dU, 0x3c34ef9d3df38692U, 0x3e02a287bcbd9005U, 0x3ce1ec20bd20688aU,
  0x3cf7b2c6bd227bd9U, 0xbe93c1263c562a31U, 0x3c80decd3d80a55cU, 0x3e065b27bd2315b8U,
  0x3d004c4dbd431e49U, 0x3cecdccd3df5bdb1U, 0x3e3d8f2ebd0d3738U, 0xbd87d313bdeea009U,
  0x3e4a6c903ce671a0U, 0x3d9f9e3c3a906988U, 0x3cb72d973bc9ba1bU, 0x3dde24babc28f53bU,
  0x3c95d746bd623129U, 0xbd7aa981be17405aU, 0x3d4a14263c75b0e8U, 0xbdea4d73be6009a7U,
  0xbe8b33813d6a70fcU, 0x3c8822ccbdbe68f4U, 0xbc3943c8bddc504fU, 0xbdac4cf1bc3e5ec8U,
  0xbd3350c23cefbf2cU, 0xbcbf2e04bd0f4a4fU, 0xbc5979aa3b5552f6U, 0x3dd9a1bcbddda3d9U,
  0x3cd0e0c9bd219f90U, 0x3dae9e69be474534U, 0xbbba8ebc3c664ff4U, 0x3b8ae12a3b0d7320U,
  0xbda50514bd29df05U, 0x39cd07123d77e994U, 0xbd740d823dde409aU, 0xbd1740a8bd336ab7U,
  0xbcd0c6773de17516U, 0xbabdbef23e2714b2U, 0xbce093ab3d6b436bU, 0xbcd5ea443ca665c3U,
  0x3cf0ff24bc5f62a2U, 0x3e03e6e93df1f955U, 0x3dd1cdc53cab651aU, 0x3dd47aeb3d2fd571U,
  0x3d88bdb33d064ff2U, 0xbd8f6ad53c35ffd4U, 0xbdbfc03c3cf0c704U, 0x3d8ca5f5bde1f0ffU,
  0xbd86fcdfbd053f4dU, 0x3daf10f73da1073fU, 0x3d20dda93dde76acU, 0x3df7c5213c1b1312U,
  0x3df6296cbc65febfU, 0xbe077a853cdb7627U, 0x3db04ff9bdad194eU, 0xbc9983b8bd1d7e3fU,
  0xbdaea59fbd92d475U, 0x3c7e789c3cada5c6U, 0x3aea6d56bd00c082U, 0x3d7309ee3c78f552U,
  0xbd0767b33e0fade8U, 0x3d89349d3d6aa4f7U, 0xbda7d0d9bd93856eU, 0x3d915912bd840494U,
  0xbd9f676cbc6721d6U, 0xbcb6881dbdcb3d33U, 0x3bb9ddcabda66486U, 0xbdc5d1c5bd12f57bU,
  0xbd28e3e6bdda3d09U, 0xbe2069e8bde5fa0cU, 0xbd90435abe3408b9U, 0xbdeb9eeebe02efa4U,
  0x3d05d89dbe052548U, 0xbe5c0af8bcc1f551U, 0xbc27b653bd183739U, 0x3c366f38bd834e7cU,
  0xbd5dba5cbe317b50U, 0x3d6ae2c8bdb20038U, 0x3d106f1f3d632c98U, 0x3c0eded1bcee5237U,
  0xbd8b1b963c85b92fU, 0xbd8a2580bc00bcddU, 0x3e079c003d496945U, 0xbd88bc91be3318e5U,
  0xbd716a05bdcec6afU, 0xbda24dc13de09deaU, 0xbd42893a3dcf27fbU, 0xbc429389bdf2aa79U,
  0x3d8ae7bdbc6b8ce3U, 0xbb9257783db9ef77U, 0x3e09153c3d858fdbU, 0x3d9351993bc33172U,
  0xbd9469d3be34acc0U, 0xbbf9fdd23cd888e6U, 0xbc884c483e00a862U, 0xbd829c3b3db054a7U,
  0x380337fc3bfabfccU, 0xbd0623653d84515dU, 0x3da2fed6bd7c2956U, 0x3c8f53eebdd46b5bU,
  0xbcc44cab3d857111U, 0x3e2a25df3e48bdf0U, 0x3d756b0039ea8835U, 0xbd077d8abd442716U,
  0xbda0101a3d52484cU, 0x3e6d20a3bdb1fbeeU, 0x3d04fd383db71137U, 0x3da29fac3e2d270bU,
  0x3d9b4c563e0a1841U, 0x3d563affbd6e099cU, 0x3d9bee28bb9c57acU, 0xbd391009bd06c36aU,
  0x3cf78b90bda1b403U, 0x3c374bec3d5c5821U, 0xbd9e773cbdb19c1eU, 0xbd966227bdc827f5U,
  0x3d91c472bc9ea264U, 0x3d1fb40fbdaf080aU, 0xbe1679eebdf71d9bU, 0xbcc251aa3d31f06cU,
  0x3b8f9bd9bd2f9ec1U, 0xbd2d321cbc499f9fU, 0xbd2bac4bbd780031U, 0xbce71fcbbd311f21U,
  0xbdea264bbbfd0fa4U, 0xbdc42a773c5730f7U, 0xbd9dda73bd261105U, 0x3d3ae9b9bd01556aU,
  0x3cedaad03ccbdc08U, 0xbd48fa343d58d3e9U, 0xbd34c2e9bc32f18eU, 0xbd497c903ba27c48U,
  0x3d32b7153ca11909U, 0xbd169ddcbccb2f94U, 0x3b86842d3ae6e7c4U, 0x3d5bb902bddb52aaU,
  0x3d6023393d17b965U, 0x3dd1f3983d701de9U, 0x3e21e3113ce9c8c2U, 0xbdfc2e9b3cfaede9U,
  0x3c3c47c2be02a09eU, 0x3c6cb98cbc304676U, 0x3d28bbbabbd9f01fU, 0xbcd3d5403d92a920U,
  0x3d8a6d5cbdd22371U, 0x3d3e16e93b60c026U, 0x3c645164bc22a58fU, 0x3e7f5f87bdbfa71dU,
  0xbce7fbbfbd4eb3e0U, 0x3e04503f3c6b7b54U, 0x3dde43f03d6c2dd4U, 0x3d38da6ebe622017U,
  0x3ca838f13c933d41U, 0x3dc28d283dba4eacU, 0x3e0bc5573e295f88U, 0x3d40fe363e15f77dU,
  0x3cea9b7abccec9d1U, 0x3dbbd4873c2c77b1U, 0x3d3c00e83dc6cb6bU, 0x3df697303c1ac6ccU,
  0x3d02db963d005c0cU, 0xbd6d6ae53cecc839U, 0x3de31929bd589849U, 0xbdcad417bd9a92cbU,
  0xbddb1e8ebddb796dU, 0xbd60a5f5bcd37df4U, 0x3a9ab5da3d6e16c2U, 0x3db01514bda1e66eU,
  0x3d947243bd73306dU, 0xbd102e9e3d3ded83U, 0x3d9eb6243ccdff1dU, 0x3ccd0608bd82d349U,
  0x3d86a4adbdce6363U, 0x3d52c0353cf6d3a7U, 0x3e47abe73db16af4U, 0x3dc164063dc76470U,
  0x3d68f80e3d3e11f0U, 0xbd38d2aabd3ad4abU, 0xbd81861d3d2f2cecU, 0xbcb726e3bdfb416aU,
  0xbe340779bb051f86U, 0x3d2393a13e410b21U, 0x3d8a042a3d501ab9U, 0x3db31b05bd9df035U,
  0x3c7b812c3cc176a0U, 0x3d0cd4e1bcaae2e6U, 0x3d940f043da06b4fU, 0x3d92b1f53e16b49cU,
  0x3d3b928dbaf8442fU, 0xbd1248f5be0eaf33U, 0xbd993c19bd591ae2U, 0x3c640e68b93b58e4U,
  0xbd86522c3cf3b304U, 0x3d25ccd73d9d131aU, 0xbd9bfce03d854b07U, 0x3c9defa53dbec5bfU,
  0x3e18ffc43dd4640dU, 0xbd3564e53dd9c5b3U, 0xbc0d0bc83dfae1d6U, 0x3c9b9a6bbe06da01U,
  0xbdc9b9a9bba2a9dcU, 0xbd1eae0bbd14069fU, 0xbdb89cd4bd34da35U, 0xbd8ba2d4bbf72a5aU,
  0xbd4935d53e253699U, 0xbd9ae7d23d6d5789U, 0xbdcbe9a9bd589ebaU, 0xbd11912bbd848044U,
  0xbd664482bdcd41e0U, 0xbda964ff3ccbfa94U, 0xbb21cbd7bd151ea6U, 0xbda88ee5bd8daabdU,
  0x3d87eb543d3eb96fU, 0x3bad74babdcb939dU, 0xbce28dc2bcd579a0U, 0xbe19aa17bce6231cU,
  0x3ca99cadbe383febU, 0xbdbff697bcbc18dcU, 0x3ca35393bde8d7afU, 0xbdfcba20bd46075cU,
  0xbe287618bd45b78aU, 0xbd07661c3d0e013eU, 0x3c634652bd405511U, 0xbcdd0562bde658deU,
  0xbd8898f8bdcf060aU, 0xbd4baa623d987818U, 0x3c782634bd5a1ad8U, 0xbd9e1a34bdd969b8U,
  0x3dd026a9be11317aU, 0xbdea9a95bdf28191U, 0xbd69d8543dacc559U, 0x3d7ceb82beb35affU,
  0x3e1969febd6292d1U, 0x3b4fe9dc3da7a2f4U, 0x3de8440a3d7ae386U, 0xbe0506cb3d2f88f9U,
  0xb9d3a02cbdfa4288U, 0xba588d503d185584U, 0x3de11bef3e1f8263U, 0xbd6c24c1bd5af904U,
  0x3df83243bdee15f5U, 0x3dfda7bdba0e7dceU, 0x3e055b6dbc927abaU, 0x3e4ce182bdd52812U,
  0xbd7c6ba93d2d29a8U, 0x3d986b603d8753f4U, 0x3dec3e273d3418bbU, 0x3d81d8cfbe632794U,
  0x3d90d70c3de9cc57U, 0x3e0b88abba892c62U, 0xbd2689bf3e3143beU, 0x3d1fb59a3e19bd3eU,
  0x3d9533463dc7bdb8U, 0xbc86f9fd3da35726U, 0x3dc191bf3de7169fU, 0x3cc7dd67bc206aceU,
  0x3cfcce8ebdc5ddc4U, 0xbdc9e9efbd24bc52U, 0xbda1e0bebddee7efU, 0xbded283b3c2d0da4U,
  0xbe04ae543d8ea048U, 0x3d296a30bd821930U, 0xbd9cc9023cc09d30U, 0xbbac430a3da8ec09U,
  0xbd4326bdbd39b8a3U, 0xbdfb4090bd253d85U, 0xbe27fc91bcc26444U, 0xbda2953abda57f78U,
  0xbd80c0a5bd47d6eeU, 0xbdff0f22bd85cfe2U, 0x3c0c6924bce43a87U, 0xbdc10cc4be1d96e1U,
  0xbde58977bc8dedaeU, 0xbd83fb1d3dd285c5U, 0xbd342849bc329762U, 0xbe1e551d3d18f9d5U,
  0x3e449949bd9062c7U, 0x3dc68681be00aa10U, 0xbdc81450be02abd9U, 0x3cfb63fcbda31ec5U,
  0x3d010e25bde36e79U, 0xbcdc85003c43de90U, 0xbc428b9abe576067U, 0x3cf1f757be241bacU,
  0xbc9858f8bc92ea88U, 0xbda37e623ae90844U, 0xbd84323cbda2df8bU, 0xbe20d802bdf31d2eU,
  0xbbd4bd56be5ed6a5U, 0x3dbbe99fbcb14436U, 0x3d03f295bcc907a2U, 0x3c6c0b223dcb77d5U,
  0x3d644574bd931e56U, 0x3c77e0463c8e26cfU, 0xbc949717bddee953U, 0x3cc9d467bdbb1f46U,
  0x3d969a463cc1ff9cU, 0x3dbcfe923a3085aeU, 0x3e68abcb3df32124U, 0xbdd970713d6df98aU,
  0x3d8717853bb8ac37U, 0x3d67f6303dc95e62U, 0x3d9217a23dc2b16aU, 0x3e07602f3da13f12U,
  0x3ccce548bd2309e5U, 0xbda4f4d53e1141ceU, 0x3dd058143db84a99U, 0xbc9c5b473b81b9c4U,
  0x3e0dfc73bc2ce7bdU, 0xbbb2414ebdca48f9U, 0xbb6b180abd443406U, 0x3d8b4ff9bbe25532U,
  0xbcf193e73db15288U, 0xbd945fcabb52917eU, 0xbc84d436bd829bd1U, 0xbd376ca2bd74b85cU,
  0xbd999d8c3e2e81b1U, 0x3d9e96db3df5d89eU, 0x3d8d68bbbd856e80U, 0x3d06a7abbd4ed590U,
  0xba8273bb3c04a0deU, 0xbcb5d4293e1ef9e3U, 0x3dae8d6d3d8168bcU, 0x3b66cdd93e24e64cU,
  0x3d89d7913d19d95fU, 0xbdd04b74bdd52334U, 0x3bc667e23d948cf1U, 0x3dbb8ed1bd004ad9U,
  0x3e16ba8ebcb623caU, 0xbcf95d5a3d648021U, 0x3dfc2da6bbc3ff2fU, 0x3ae3f13a3d320b71U,
  0x3d0113a73cf5e73cU, 0x3dd52dd73e1e5b38U, 0x3e13496c3cfffc71U, 0x3d567d553d9efb8fU,
  0xbdafd1ecbc955a06U, 0x3d0ea7003de60a3dU, 0xbcc830283ccc2f2aU, 0x3c4639803e15c07aU,
  0x3d6406723e252442U, 0xbcc7d1e33d8d5c4dU, 0xbdcf8c5abc902919U, 0xbd8132b7bb34b5b4U,
  0x3d15bee83d18ba2eU, 0x3cf4bb85bd07dc61U, 0xbd4b0821bc35b15cU, 0x3dff7b68be05dd23U,
  0x3b47bbe23d9aa472U, 0x3e0a024f3dc05928U, 0x3d524ef83ce6f6e6U, 0x3e102a133dd4dd79U,
  0x3ca23bc3be1cab2dU, 0xbcc15ce9bdb1b03aU, 0xbbf8d00bbe162c5dU, 0xbceeefc7bd7d27cfU,
  0x3e02c972bdc3b298U, 0x3e90bfc6bd98e930U, 0xbcb1a01dbc34ed96U, 0xbdd5be85bd237a3cU,
  0xbe0bebb0bcf86882U, 0x3e1f412dbe3d4658U, 0xbcd77cbd3e02926cU, 0xbd4837353c5fc59aU,
  0xbd9be0b93be0aed3U, 0xbe0bb86f3dc1e3c5U, 0xbd79da4ebdeb84fcU, 0xbdfeab06bcdf839cU,
  0xbd0925f7bd94246aU, 0xbd61db9f3c7b1529U, 0xbe08ab97be170d2eU, 0xbe0761c5bcce797dU,
  0x3deeb181be3f281cU, 0x3e502f8cbe0bf299U, 0xbe52b01abcba17efU, 0xbe0ea581bbf765caU,
  0xbd57a3f5bd08a1a7U, 0x3d798dd6be3840feU, 0x3c875530bdf0bf87U, 0xbe35c116bc7efff3U,
  0xbd9039edbd25b109U, 0xbda071293d061f6fU, 0xbe4586c33cc7cd93U, 0xbe2f13fabe3349beU,
  0xbe00776fbd76a406U, 0xbdb71545bdc512a1U, 0xbc32a937bc8c73e8U, 0xbd04bf4d3d9cb09eU,
  0x3d1b5ffbbc307156U, 0x3b25a543bd726899U, 0xbcf34d72bdec3496U, 0x3c859c313d1790cdU,
  0x3d0feb81be12c5ceU, 0xbd044b95bd9609cdU, 0xbb87bef2bd94f124U, 0xbe1fdaa3bde3f516U,
  0xbe1b717dbc702661U, 0xbdcb4a1fba96b701U, 0xbd59ec763d3157d1U, 0xbda842e0bdec8442U,
  0x3e02d2403d176bafU, 0x3d996417bd9f281eU, 0xbc91dd0d3c3b1f02U, 0xbda0bd46bd265ee2U,
  0xbd88ffab3e380b12U, 0xbbb9be36bd90d596U, 0x3db74af83d3307b3U, 0xbd3522dfbdb53c39U,
  0xbd5522513dd70c32U, 0x3d8bf8aa3da3a063U, 0xbda06b523e46e763U, 0xbc1b70713e806e74U,
  0xbae0ad33bdacb2eeU, 0x3c9b59ffbd9c926cU, 0x3dc97f743bb4c10fU, 0x3d79edf03c53ec1cU,
  0x3db468383d958cdcU, 0x3e0682d4bd4df0b0U, 0x3d6ddbe93d325f09U, 0x3d5b752dbe7fbe64U,
  0xbe6a63bf3e362283U, 0x3e064cffbd796282U, 0x3df3c1fe3d840506U, 0x3dc10863be1410c9U,
  0xbd3ccdc53d73c3c2U, 0xbd1baa8e3d93e891U, 0xbd8d31863dee58afU, 0xbdb0ea263db6f1c6U,
  0xbd1b6de7bc879c66U, 0xbd1ede1ebe83a0b2U, 0xbcd84f18be095484U, 0x3d80ccd93d1be620U,
  0x3cf7bcb2b973b0d2U, 0xbd2a663dbdf42ceeU, 0x3ddb8086b5aaca40U, 0xbc8809ffbe8278e3U,
  0xbe44a7593d99ba27U, 0x3d4038aebda36321U, 0x3db41e703d72e4c5U, 0x3de6f755bdbd88ddU,
  0x3d83ae1ebc1b109eU, 0xba3dc0ccbb6c70f9U, 0xbc8aa8bc3da792ffU, 0xbbb67adebd06bcb4U,
  0x3d1bcfaabcd6aa3fU, 0x3da2096bbd933ac4U, 0x3c0b9ae43d9f42afU, 0x3d6276a2bda86139U,
  0xbe3b3ae4bdd75e90U, 0xbdebd76c3b7879dcU, 0x3dc9bca5bd08ba5aU, 0x3d9a63d33e03fd78U,
  0x3e015c08be0a3ca7U, 0x3d964b063c8ffae3U, 0xbde3a1a3bd87187dU, 0x3d489288bceefc0eU,
  0x3d6a4cb8bd9ac284U, 0xbd81a95abc202411U, 0xbc5a2b4bbdf59e5eU, 0xbcf28b4dbda475e2U,
  0x3d9797c93d6e68d7U, 0x3b2b5f503d932591U, 0xbd282e6dbd81877dU, 0xbcced66e3cbfab6fU,
  0xbe2679613c6c8c89U, 0xbe10481d3d885a4cU, 0xbd774fdebac508c0U, 0xbd78c5c73d87c530U,
  0x3d4054473d5156e3U, 0xbdae5540be06e6bdU, 0xbdf5d9a5bd38edb3U, 0xbd09dbfabd4ce1caU,
  0x3d455af3bdb5b8a6U, 0xbe0ffa13be08f79aU, 0xbdc32d98bd8e4052U, 0xbd93e2d0bda7a202U,
  0xbe199b303cfd7541U, 0xbdfa37523dbd89baU, 0xbd30afa0bbe1f37cU, 0xbdc97be8bd0494e2U,
  0x3d311b68bcaf5f80U, 0xbc16b196bcb84cd2U, 0xbe1f7061bdb8c60aU, 0xbde43c78bd26c703U,
  0x3dcde04ebd90bce6U, 0x3e198ff8be1d6968U, 0xbd862e32be37e463U, 0x3c67135c3d88ac3dU,
  0xbe09a9e0bab27ebeU, 0xbe0a319b3cbd7b26U, 0xbdab967cbbc90532U, 0xbcd5e3123d7c554cU,
  0xbe24a42dbde5c032U, 0xbd80c817bd45ff67U, 0xbd159434bd9fe7b3U, 0xbd8120f4be0d9db4U,
  0xbd60b6343dbacfebU, 0xbd96679cbd01877dU, 0xbe2b1eddbdc1dff0U, 0xbdc94b1fbcdbcd0dU,
  0xbc56ac14bd6dca75U, 0xbe1d91c7bd8bdae0U, 0xbc8b3821be1569beU, 0xbca631923e041b03U,
  0xbd8f1b2dbdbc01a8U, 0xbe3de16dbdae36c5U, 0xbbe57fc5be30fe01U, 0xbe33e6fabdcf5cd5U,
  0xbe429d47bdcc397eU, 0xbe463c313c969580U, 0xbd0d5165bd8ae15cU, 0xbde97a4fbdefa7daU,
  0x3e12095abd01d91fU, 0x3e212862bcb7a318U, 0xbdc8b52bbd809e16U, 0x3dbf298cbd9f5e77U,
  0xbd92d0e3bc2f4b20U, 0xbdbd42d9be7b4169U, 0x3e0991c0bdb10959U, 0xbc4bcf0ebd346275U,
  0xbdc383e2bc7f8cbdU, 0xbe4cf9d93d54276bU, 0x3a85588e3da14609U, 0xbe3341373dfbcc1aU,
  0xbcbdf8aa3e03f883U, 0xbd665f6cbd4e70e2U, 0x3dddd0133ccf8d57U, 0xbe102c7cbcaf54d1U,
  0x3e4227423e1c851eU, 0x3dbad47d3dc47b19U, 0xbdd6bfe03dcfe240U, 0x3e20ce843dc05963U,
  0xbd4319f7bb353f8aU, 0xbd176558be6236f8U, 0x3d71fb21bd2acf4fU, 0x3e02afc2be1f820fU,
  0xbd7686633dace43dU, 0xbe745a0e3d466679U, 0x3d87205f3d9ec00cU, 0xbd70e58d3ddf075dU,
  0xbd8f37223e4872f3U, 0x3dd5005ebd159b99U, 0x3da494f13bd1c7cfU, 0x3d359b383dc33c4fU,
  0xbd26ca153d73bc13U, 0x3b9f6e32bca3ed44U, 0xbe473682be205bfeU, 0x3d7c0dd4bd3b5ba2U,
  0x3ca1e19bbdf14475U, 0xbc5c47ac3dc66b76U, 0xbd98ca0c3d5cf031U, 0x3d7492c7bcbee1c8U,
  0xbdec3c6ebe0698b2U, 0xbc6f551a3d472a6cU, 0x3e233e87bd892155U, 0xbdc130133d12e68dU,
  0x3a53b5003d4d1ed6U, 0xbdf60c30bdbbbbdbU, 0x3d5cc2b9be14353fU, 0xbe241807bdca31e1U,
  0xbadc15783db61d83U, 0x3dc89f30bb16135aU, 0x3bc086e93d0a5936U, 0x3deee297bd29e656U,
  0x3dbcac69bd52791cU, 0xbc94e078bdfd61c6U, 0x3de3a02a3e0567a6U, 0x3e0b7675be3e07e6U,
  0x3d329444bd7067a2U, 0xbdf21ded3db5ef48U, 0x3dc2cb74bdc38a8cU, 0xbcf3cec7bd588c08U,
  0xbdabd73c3e0d6b60U, 0xbd4fcd203e1c8224U, 0x3e2e0f963d649d34U, 0x3ceef85f3ad4a58bU,
  0x3d5cf141bd30634dU, 0x3de0082c3d0e3d1eU, 0x39f076873cac465aU, 0x3cee12ba3e0fb051U,
  0x3dfe6b57bb944af3U, 0xbcc8529fbde62197U, 0x3cdd40a43d5facf7U, 0x3dbf476ebc4d659aU,
  0x3d4cc09a3d1c38d8U, 0xbd729b253cc03e91U, 0xbe2574f6bdf69796U, 0x3b21f138be21ee83U,
  0xbd61a0cd3df94b33U, 0x3c0032aa3dc7f9c1U, 0x3d422ced3dd39d40U, 0x3d284f5f3ddfe3a2U,
  0x3d943032bd1687beU, 0x3db9c5103d1f2a80U, 0x3db13a2bbcd9b6b2U, 0x3bea44b0bd9394e4U,
  0x3cafe755bd830dc4U, 0x3e247135bd6583baU, 0xbce1cae73dfb31bfU, 0x3d6d634dbe12b5b5U,
  0x3c91a50e3c088980U, 0x3e270e423e0b3080U, 0x3d9868ef3e13a0f6U, 0x3d0644b13d1b1115U,
  0x3db15de9bccbf10aU, 0x3ddd449f3d8c4c02U, 0x3d08c6d5bc21faa2U, 0x3d603bb93da94e1cU,
  0xbd1454bcbddde894U, 0xbd0d5ee5bb08f0dcU, 0x3cada17c3a5c9126U, 0x3d7e2180bd7b0a19U,
  0x3d25500c3d2ad3a5U, 0xbca3f8ab3d077f96U, 0x3c9f6edb3d09e666U, 0x3c8daa2ebd4ae843U,
  0x3d17bb203e10df3eU, 0x3e115b3abb62859eU, 0xbdb43ee8bc9d1c5bU, 0xbd476a713cbf214eU,
  0x3ba7a7b03d6f5687U, 0x3df975983c747aedU, 0x3d71b6613cb8d934U, 0x3836bf8d3dbed8e8U,
  0xbd3872bcbb4ea2c7U, 0x3d16f3213d2d9431U, 0xbe00a6cc3c51bb48U, 0xbc3c4ef63d786b36U,
  0x3db64ec5bccb603fU, 0xbd55c6f0bd10527eU, 0xbda7cf36bdd2866dU, 0xbc82db7d3b9a6c08U,
  0x3dde7971bc6fdaf2U, 0x3d01b78abdd3369cU, 0xbc35fe8a3c38cba8U, 0x3dbcaf67bd9a491aU,
  0x3c1f6d623dd1c52eU, 0xbc963725bd5ce379U, 0xbbf0b19ebdf8d043U, 0xbc9221663d6ef4ceU,
  0xbe25ce42bc980ca8U, 0xbdba54a53dc2d1aeU, 0x3b87f5dc3b7a11caU, 0x3d9c76d83d29c151U,
  0x3e03484cbe6754caU, 0x3df1eb7aba9c088dU, 0xbdc92caabe031e51U, 0xbded8101bb95d7abU,
  0x3e0ed665bdf45bb3U, 0x3e267a9fbdd4f749U, 0x3d6e3300bd590d0eU, 0xbbaf6692bd9fdd56U,
  0x3d8c8df33d9b77c7U, 0xbdc82f603c09d80eU, 0xbbcaefa43d9a5912U, 0xbc945094bda6b40fU,
  0xbd758666bd06be46U, 0xbd800323bd2970a8U, 0xbd3d84733d9ce80fU, 0x3c9e318d3ceffeddU,
  0x3d18f16d3c03037eU, 0xbc5617cdbd4c75d2U, 0xbe25827abd8b5d06U, 0xbe0a0333bc8aff8dU,
  0x3cb9a7083b8e1567U, 0x3d734b4abd344cadU, 0x3d18737ebd0ad11fU, 0xbd97c9bc3ddebbf9U,
  0xbd085f583e3c705eU, 0x3c0eb9cd3e12a88fU, 0xbd236d4c3d950152U, 0xbc52f31e3d4b6e6aU,
  0xbd6bef0cbe0ce7a3U, 0xbdb4da043c82a803U, 0xbd0573223d02cab9U, 0x3d6e5d5c3e2d8989U,
  0x3e2d065c3bd2e781U, 0xbcd098d5bc80f4f8U, 0xbe8388bcbe0afb58U, 0xbe2921d03c86272cU,
  0xbc74df2cbe01cf43U, 0x3d3a0aa2be1afd83U, 0xbe2e3776bdc722abU, 0x3cdac9d1be139194U,
  0xbdc9d4793e4a454eU, 0xbdf822e7bd6e1c7eU, 0xbda2d71fbdf93352U, 0xbd89b24fbdc8be51U,
  0x3c65df85bd54028aU, 0x3da2dc5bbe21cbf6U, 0xbcb54553bdf0e3c1U, 0xbd4d4217bdb3bd23U,
  0xbc9e5e86bd262621U, 0x3e07ac393a853643U, 0x3c1c5100be141c66U, 0xbe00133ebcddd392U,
  0xbe147315bd9dc7cbU, 0xbd580ee7bdc3283cU, 0x3d7ee9763c817ca5U, 0xbe0b089a3e143c59U,
  0xbdd40c18be59b46fU, 0xbce9a6d93bef1c2dU, 0xbd75b834be2d4ad9U, 0xbe4503cfbe4c80dfU,
  0x3d42ba1f3d3266c9U, 0x3dd4025abd839be9U, 0xbe2cc1ecbe3558c2U, 0xbc1c4f8cbcaf07b4U,
  0x3d05b37ebd363823U, 0x3e7409fdbe363288U, 0xbd4d77d1bd600b9dU, 0xbe41b217bc364106U,
  0xbd74171d3d19764cU, 0xba8f3e763c701cebU, 0xbd18225c3cb5e409U, 0xbe526c6c3e397f29U,
  0xbdb49573be166262U, 0xbdea3f5c3c0af14aU, 0xbdc1d9e1bca33daaU, 0xbdc52569bd9d134fU,
  0x3cd47c8cbd3e03a2U, 0xbd571044bdf15219U, 0x3ac853cbbe1e9664U, 0xbdf67d95bd831114U,
  0xbe2c6d56bd8e3248U, 0x3ca1ef95bd4b44deU, 0x3d7d5dbebc936b2eU, 0x3d05924d3d654c0cU,
  0xbdb6fc01bd0f2c24U, 0x3c6dcb45be067500U, 0xbde57b2d3d547c81U, 0xbd61f08c3e1dc693U,
  0xbd7400f4be607a41U, 0xbd8c403bbcd96ce5U, 0x3c0158d4bd32c8b1U, 0xbdec4dc6bd465f2eU,
  0xbd8f018fbced9866U, 0xbb9b320ebbd388baU, 0x3d08ec09bd8320afU, 0x3e0ee2063d0132ceU,
  0x3ddfa297be055f5eU, 0xbdb00038bd7595f5U, 0xbd1911f8bd9acb3dU, 0x3b0884593b22baebU,
  0x3e071010bdbfae48U, 0x3cb362133d95431aU, 0x3e1aa86fbd8901ceU, 0x3cbd48d5bd82c64aU,
  0x3db10827bd633314U, 0xbcd650913da40765U, 0x3e18c4343df08c3bU, 0xbd5c7d513ceea67aU,
  0x3dd6ec5fbc8963dbU, 0xbcd40b5c3babc831U, 0x3d6af9c13ded180bU, 0x3e30d8aa3dc5af6aU,
  0xbd4fb7e33e0b7ed4U, 0xbd05d02e3c342fc3U, 0x3dd1e4bd3df8bc77U, 0xbca8d63e3c60c22eU,
  0x3d7dd3e63cf343c1U, 0x3c9fd2913bbffa6fU, 0x3ca8b4053dbcc7dfU, 0x3ba05369bbb878ebU,
  0x3e50c6293e06076cU, 0x3c4f242a3c2529d4U, 0x3d3faa893cfc3549U, 0x3d1d20513d101f77U,
  0x3d8dc9033cb36211U, 0x3dd1915f3e00edc4U, 0xbdb1632b3d155d07U, 0x3d8bd6f63dd77197U,
  0x3d96710d3de979eaU, 0xbe3f22543db274dfU, 0x3d74ca58bd6495d6U, 0x3e0b6dca3dc83c69U,
  0xbd97de9c3d29da6dU, 0xbde96c363dfe464aU, 0x3d1386fabdd37942U, 0x3dc3f6e03d2a921cU,
  0xbd28b5b53e431e6dU, 0x3c3504703e03e174U, 0xbd5d8849bd998d03U, 0x3dd9e5e03d502450U,
  0xbe94895d3bd737eeU, 0xbe78a3e1bdcea420U, 0xbd299c97bddb05cdU, 0xbdf19d2dbd3b5126U,
  0x3dcb099abe9a26ddU, 0x3d7840acbe37ef62U, 0xbe702fa3bd420bb0U, 0xbdb211f2bdb0f3eaU,
  0xbc8a84ebbe81394cU, 0xbe12631dbd4a88bbU, 0x3dd30dfbbe428f38U, 0xbe767ceebe8da9efU,
  0xbdeb9bf33d9846cdU, 0xbd841a0e3c8633a2U, 0xbd6f84663d0dc286U, 0xbe2a0858be0a2712U,
  0xbe3a6468bc8b0cfcU, 0xbded74d3bd643294U, 0x3d08b8323d98bb27U, 0x3e00b51e3d8ed6aaU,
  0x3d0fd08cbdf1a37fU, 0x3d8e0da1bcbf55c8U, 0xbe21b1d7bdb518a7U, 0xbc20c08b3dbdc423U,
  0xbcbb6f9abe23b675U, 0x3cb1a1d2bc94a2a0U, 0x3da1831ebd99bcf1U, 0xbdc71c7dbdbc80f0U,
  0xbc29edd93e07afc5U, 0x3d4a00273d1748bbU, 0xbc32883b3d36dd99U, 0xbcb7132a3d84c9a4U,
  0xbe109696be2c9f61U, 0xbe9c2a2cbcb5c239U, 0xbd25bf683db7a04dU, 0x3cdf3c7f3e07085cU,
  0x3d3fc4a2bcc100fbU, 0x3d9f481d3e15006dU, 0xbe4ef420bdd82321U, 0xbdeee04e3e42a7cfU,
  0xbe2a7a70be5ab8b7U, 0xbd80856bbd80a9eaU, 0xbe1ad961be3ed7cbU, 0xbc0e37a0be39df60U,
  0xbace07bb3e4e2383U, 0xbd2aa6e93b1784c7U, 0xbe5aaebcbdd3bd47U, 0x3c830de8bd415470U,
  0x3c4c3dffbbd99af2U, 0x3be5b394be6c6371U, 0xbe409ba8be0cd693U, 0xbe221439be168cacU,
  0xbdb62d06bc8cb91aU, 0x3dc0b7b3be0cb951U, 0xbd3d60e6bddb880bU, 0x3bcdc717be4138b5U,
  0xbe4e1937be076345U, 0xbe260e37be380defU, 0xbac2ff1ebdb93989U, 0xbe943ba73a8ef7e1U,
  0xbe661384be302136U, 0xbe02c810be2646b3U, 0xbd9e893abe9bd0f3U, 0xbe94f8aabe2b4389U,
  0xbd07c7923d07ee25U, 0xbdbfd9fabdc1d255U, 0xbe1ffa56be42c308U, 0xbe012405bcd052ecU,
  0xbd462220be0fc50cU, 0x3cfc454ebe18acb5U, 0xbe0091c0bcacf209U, 0xbe6b354fbdad8024U,
  0xbe44f118bd97110fU, 0xbdbdcb9dbe2f8ad8U, 0xbd85f3693d52d8a6U, 0xbe3ac3ce3dbc50bcU,
  0xbe2fb787bddaf376U, 0xbe4ed4233db74e86U, 0xbe75b02dbe7cb6b4U, 0xbe214c13be6357b2U,
  0x3cc1adc73d97ee69U, 0xbd073340be84ee74U, 0xbe4f8bb9be9a4ae6U, 0xbdb9770bbd99789cU,
  0xbe1f9c88bd5f12f4U, 0x3da7870abd9e88c0U, 0xbcbf4ff3bdbd3cd7U, 0xbe07c32abc3f9883U,
  0xbe51e9f4bd2088ebU, 0xbcb6984fbe009d4bU, 0xbdd696163d132c2eU, 0xbe7ba3823e3a616fU,
  0xbd7ba95dbe3bf4f7U, 0xbdcc357ebdf6cea6U, 0xbe2d4717be2cc7cbU, 0xbe9ef8b3bdf7fd27U,
  0xbd29a8a93d63e2d4U, 0xbdbdf86c3da98c32U, 0xbd5c5afebdd2375bU, 0xbd19d009bdf8282fU,
  0x3cf3f89bbe43efefU, 0xbcaef7843d09a314U, 0xbe279811be0f428dU, 0xba886c883de0041aU,
  0xbde02f2dbd8eb901U, 0xbdc8c45abdaf7bc2U, 0x3c12f13fbd300562U, 0xbd92c33bbe082417U,
  0xbb0ec7863bd54485U, 0xbdc8a0b9bdd42812U, 0xbdb443c1bcea28caU, 0xbcabf3bfbd7a95d4U,
  0x3db0b9353d410c81U, 0x3dd91d93bd1e4bb1U, 0x3d8717bc3d69288cU, 0x3d83d8c23c03d599U,
  0x3d4504053c4ebbb9U, 0xbd71557f39cec593U, 0x3d6aee7e3dee746eU, 0x3d41046b3d870675U,
  0x3d01a739bbc4d20fU, 0x3d3cb32b3dd1ac7dU, 0x3e0ddf553cd499b4U, 0xbd2627d339e38663U,
  0x3b8d8b0a3da68ebfU, 0x3dde6f633d960e18U, 0xbbda3edfbbd2fad1U, 0x3c816382bc2ce192U,
  0x3e1a7a6c3e04a5afU, 0x3e459fcd3cb07655U, 0x3d5208003c5940d6U, 0x3d821771bc9aad69U,
  0xbda05aff3d573f4bU, 0x3b5fd77fbdd13440U, 0x3cc70051bd04a0a4U, 0x3df93cb3be19e184U,
  0x3d6c9b573dec47fdU, 0xbdb78e5b3dde44ddU, 0x3de536bd3d00a708U, 0xbddfbaf23dbc4d1cU,
  0xbd02f68d3cd90b6aU, 0x3e01eeb1bc572285U, 0x3c3e159a3d51063fU, 0x3d99972b3ddffc2fU,
  0xbd8dec67bd859d62U, 0xbe75d22ebdebfd95U, 0xbe1eddc5be5fa460U, 0xbe2c60c8be1b552eU,
  0xbd0fa1f7be3e099dU, 0x3e16bab5bd5432daU, 0xbe1d0d5cbdb1c567U, 0xbd93ee55bdcbe1c0U,
  0xbd57e926bd7f1798U, 0xbd235414be223c11U, 0xbddaecfabdac75fbU, 0xbe6c0269be57f1e2U,
  0xbe49db26bccd0cf0U, 0xbe4940febd746091U, 0xbe087e7dbda653bdU, 0xbe52b4d9be3738d2U,
  0xbdbb868dbd8f5b46U, 0xbdcffb82bd12875eU, 0x3cddc4e6bde6058aU, 0xbd164bc5bd4f152cU,
  0x3d80a3e8bd9dc3e1U, 0x3e45853fbe4d8db0U, 0xbe523df3be337378U, 0xbe01ff9fbd5e368dU,
  0xbd534d39be38b97aU, 0xbe121eae3d18816eU, 0x3c241136be6bd2b1U, 0xbde402b5be72181dU,
  0xbe12cffb3d052e9aU, 0xbd80fbec3d304465U, 0xbd598b17bd8f9042U, 0xbd78da58bcdb304dU,
  0xbd8a9ca1bd30e895U, 0x3d31d2213d7e358dU, 0x3dddc2d83db38c96U, 0x3d8608e43dfe32acU,
  0x3e5396873d6d0784U, 0xbc848454bd17f0a9U, 0xbde02787bd97d0f1U, 0xbd4440e1bc97041eU,
  0x3bdbdbd0bd9ea2e5U, 0xbd3d24873dfbcc1bU, 0x3e0ba4b3bda03ee6U, 0x3d8961b4be04c59fU,
  0xbe04d2033de3d486U, 0xbced2c2c3dc59424U, 0x3cfd77553d65489aU, 0x3df668723e0f14b9U,
  0x3d6c8694bced124eU, 0x3df75fd0bd906007U, 0xba77f14d3d636184U, 0xbe2a1834be802b66U,
  0xbdf7c11d3d09c382U, 0x3bf7279c3d358e2bU, 0x3d6342ad3b9facd0U, 0xbcf567d3bd892ff6U,
  0x3d70dc933d216f71U, 0x3d0a1c1cbce614b9U, 0xbd4b18c43d68975eU, 0xbce632183dd2c9b9U,
  0xbd9e5ad0be042ce8U, 0x3d733858bdbb3002U, 0x3da1eaf3bdae0149U, 0xbd1da370bd8bf84bU,
  0x3da6aba1bd74d6bfU, 0xbdb4b7cbbe530df1U, 0xbdbda82fbe06eb17U, 0xbd82f737bdf5ebafU,
  0xbdba15c03c1f9db7U, 0x3e4fa21bbd5158a5U, 0x3a81f27fbdb33931U, 0xbe647fd0bd5958dbU,
  0xbe0e71fb3d999376U, 0x3d11a5dfbe182fd0U, 0xbe7e9ea43e055eb7U, 0xbc084b213e3fac30U,
  0xbdb71919be633861U, 0xbdbe46a5bd9134cbU, 0x3c951041bdcdb8faU, 0xbd891f6ebd8c79a3U,
  0x3c1c2928bd2ad6ffU, 0xbdb18dd2bb6d4770U, 0xbe1276cabe1bb50aU, 0xbe512e853d74de8eU,
  0x3e5ebe68bd5d2dc0U, 0x3d76c223be6f6ee9U, 0xbdab4471be0b3d21U, 0xbcbada51bd0e6662U,
  0xbd231771bd0dd5a0U, 0xbda80f87bd9e942aU, 0xbd1beb96bd628712U, 0xbd8879263dc79487U,
  0xbe38db5dbe11534eU, 0xbdc7610dbc8f91a9U, 0xbdc53c54bd3a3ac9U, 0xbe0e2b41be3dd1f6U,
  0x3d8ae22bbd0fc894U, 0xbc2f0df1bdb95fb2U, 0x3df724213d5f064bU, 0xbdc7e659bdfcc76fU,
  0xbe24f5063d1fb2dfU, 0x3e22cf493e08f15bU, 0x3d3ad4d83d8b864bU, 0xbd9fefd5bc7e2da1U,
  0x3d11878f3dfafddfU, 0x3e02a6063cbcb10aU, 0xbd35e52a3e32422dU, 0x3dc5b2203e153337U,
  0x3cf24e89be2da820U, 0xbd29c570bcccea22U, 0x3d9fc3163d9399f8U, 0xbd4454ddbccf0789U,
  0xbd285fcabd1bc304U, 0xbe71b4e9bdd2bffaU, 0x3d3228acbd4cfda6U, 0x3ce7d588be16536eU,
  0xbe111952bcdea645U, 0x3dc7fef9bdbf3c39U, 0xbe4fe4063c49499aU, 0xbd964de8bdbeaaaaU,
  0xbc83d7e7bd403bfeU, 0xbd49c905be3bed46U, 0x3d5ed698bcbbd2aeU, 0x3ba759623cce2ad6U,
  0x39c15aeabdf39cb6U, 0xbe3e0eb4bda922b4U, 0xbe7e5abebe6fbc1aU, 0xbdd28034be28ffdbU,
  0xbde6fe69bd9d956cU, 0xbe294fcebdec6bf4U, 0xbd9f9380bdc6ed7aU, 0xbe2ef36bbddd595cU,
  0xbd7fd9c9be4c15c8U, 0x3d3c5de13cd5a439U, 0xbd9e0a02be15234dU, 0xbdc5b69bbcd425c3U,
  0xbe18be0fbe009ddbU, 0xbda5c45abe235131U, 0xbd2de46abcd0708eU, 0xbda0b703bca021a4U,
  0xbe3cffa0bdfc056aU, 0xbe302656be3a40a9U, 0xbdd997fabe394405U, 0xbe28ae42be06399aU,
  0xbd1cb138bd502556U, 0x3ce369aabd62330aU, 0x3e18daee3d4c3b5dU, 0x3d538b883dafd244U,
  0xbde72f8b3dac0cdcU, 0xbcec54c83dd72c81U, 0x3bc1a3223e07f2f6U, 0x3da0cde03e2168deU,
  0xbce73ca03dab5beeU, 0x3d8cbe8dbd0d3de5U, 0xbda575c13d9bd2ccU, 0x3dad58c2bdd057ebU,
  0x3e45a0d9bddefa9dU, 0x3d54e4b1bcddbe12U, 0xbd9e2c843ce28ebdU, 0x3d839f20bd8abaa1U,
  0x3b40554ebd78f183U, 0xbd0cdcecbcb77d67U, 0xbddeb0d1be20624fU, 0xbcf68b5fbdaf6e5bU,
  0xbe48f876bd175b93U, 0xbc2c6e0cbddf2ae3U, 0xbd42d968be73a529U, 0xbd4c33d53ceb31faU,
  0xbe13ae37be53ba29U, 0xbdd40b33bc936493U, 0x3d420114bdf1a9caU, 0xbdcd4629bdd8feefU,
  0xbd5a5f65bd8f15cbU, 0xbe45bd3cbe829220U, 0xbdaf01d5be26bd96U, 0xbc5090d8bdd8dfdcU,
  0x3de76a7c3dd33f6aU, 0x3e1050acbdf5269cU, 0x3d767e54bdd52f15U, 0x3cce5411be198c7fU,
  0xbe930f0abaa886d4U, 0x3dc39209bdb6f741U, 0x3dec9b033c3c089eU, 0x3d44426f3c8e1197U,
  0x3d0c7fa83ca0a747U, 0xbdad3b503ca67cc6U, 0x3d92b8f33db3f830U, 0xbe201b433d943bdaU,
  0xbd40852dbd794f25U, 0x3d8bb2afbe96217dU, 0xbb1f06133d086134U, 0xbd5c83eebd24f81fU,
  0x3ae2fe4bbd980e2dU, 0xbe3eb126bd2cfe8cU, 0x3bc8c546bd5c929eU, 0xbe2c72b43d2c6a6aU,
  0xbcaf14e0bda93d26U, 0xbd23db3c3e597f5cU, 0xbdf327373ccdbb89U, 0xbe12ff073d93ad47U,
  0xbd4f13c6bdb0e70dU, 0xbc82c059bdbff569U, 0xbe612b5abda956f8U, 0x3dd9a62dbda201d4U,
  0x3c0ce767bdc7ea61U, 0xbdefca7ebdfef08fU, 0xbe05c872bdcd3bc5U, 0x3d16723a3cb20ae8U,
  0x3d3374593e0603d3U, 0x3d8320d5bd35ba45U, 0xbe2c59e2be1e4dd9U, 0xbd4e4540be32ef64U,
  0xbe8693c73cd3cbf3U, 0x3d81f417bd7495bcU, 0x3d4ef216be1fb6dbU, 0x3c105b613dc08eccU,
  0xbd036cc73d3e4047U, 0xbdc53f933c21b442U, 0x3dbcf01abc4dbf0eU, 0xbd9730843da14b2aU,
  0xbdaa67fcbe4c405aU, 0xbddaad72be24c71eU, 0xbda5faaa3d0feea5U, 0xbe6ce998bd6ffe15U,
  0x3e11e2cf3da7248cU, 0x3d3fdac1bc626a66U, 0x3d1276433e01a50eU, 0x3dfe6a983d824c13U,
  0xbe14dca03d394b25U, 0xbdcea527bdf3c0c8U, 0x3d2ffadb3d1eb0a8U, 0x3e3ad1f9be717fb0U,
  0x3d3ddd4a3d1e7033U, 0xbd89bb0e3dae34bfU, 0x3e26fae63db92cc6U, 0x3e02c3373d99a252U,
  0x3cba7e403e0b2513U, 0x3de40fd0bcdc73c9U, 0x3e0c601b3e078e71U, 0x3cdafb353dc8e290U,
  0x3dfb38d1be0d9ff1U, 0xbd9bfe0c3d09c697U, 0xbc3fd267bd8d4e77U, 0x3da65334be22cf5eU,
  0xbd31bdd03d7c2798U, 0x3e1030373e66e509U, 0xbda12746bd2e4539U, 0xbd804e65be67fb6aU,
  0xbc54059d3e2382c3U, 0x3dccdcf3bd3e3d29U, 0xbe341f383dcafe62U, 0x3d5891b43dc79fdfU,
  0x3dcafdfbbc042186U, 0x3dba1b0c3bb05a86U, 0x3da1dba33df7d000U, 0x3d94e5cdbd8ede17U,
  0x3dcb9d5e3c9d5f2eU, 0xbd80e0ecbc478ec7U, 0xbe137899be261e89U, 0x3d805ea5be0bffd4U,
  0xbcec19f13d7cb7d7U, 0x3dc7bf2f3d2efdc3U, 0xbdabec13be2fbaafU, 0xbe083741bd168462U,
  0xbe078bf3bc4eeec2U, 0xbb9ab123be2b2ac4U, 0xbbf5830f3cc8e82cU, 0xbd3b09203de26072U,
  0x3cbbfa36bccc2b19U, 0xbe14a2b1bd790f10U, 0xbe2adbe1bd83ef83U, 0xbd8fbe58be2eb989U,
  0xbcdfd4383d265594U, 0xbc8f58cabd790750U, 0xbe1211c53c3ff611U, 0xbc690f873d83a2b3U,
  0x3db0df78bdeda402U, 0x3dbe0253bba6d7aeU, 0x3d8451283dbc22f8U, 0x3d5452e13ce7e680U,
  0xbdf5448d3b715437U, 0xbd7b490f3c7456f5U, 0xbd55625c3ca9ea03U, 0xbd4b32edbd239d7aU,
  0xbe3e720f3e002e39U, 0xbc8c86803dc0a128U, 0xbe327044be0a6fa3U, 0xbdd1155fbdd51760U,
  0x39b60afebd8ad620U, 0xbb92e34abde4f8c6U, 0x3e070d72bd343ffdU, 0x3bd176c2bdf38922U,
  0xbe2b0b323d6af86fU, 0x3d1fd7523d76fc32U, 0x3d04ca343dbc8c2dU, 0xbd7db744bdf36cf9U,
  0x3d93ec963d6e43e4U, 0x3dce02253d435175U, 0x3d3627583e241930U, 0x3e0b2b5fbd84e2a8U,
  0x3d1cc9a3bda454c5U, 0x3b7689403ddff664U, 0x3e1880fb3e6c26c8U, 0x3e1a83c13e24bbfaU,
  0x3d6e0530bd0ed078U, 0xbbef61c73c343e9aU, 0xbd97d257bd783ee1U, 0x3de7b5a9bd914a7dU,
  0xbdb1d6783ce862eeU, 0x3de2408f3dd86d46U, 0x3c827261bd8c8c80U, 0xbda5acc3bd5dd456U,
  0xbded82df3dcdfd58U, 0x3ce95cd2bdbb4a94U, 0xbdc8b7fc3c7e6161U, 0x3de33ac93cff9dd3U,
  0x3e1e28fdbd1c7adfU, 0x3d70b08fbe173f3bU, 0xbd86e422bdf3dcc0U, 0xbc58d2aebdf6cefaU,
  0xbc3faf633e009d38U, 0x3c9b1abebd094b50U, 0xbdbde7493c53a7ffU, 0xbd1c7206be093afbU,
  0xbd1a03073d00dd31U, 0xbdbfdf31bde53642U, 0xbd912e1fbe63ff78U, 0xbd37ac42bc126688U,
  0xbe024ad1bd32b8eeU, 0xbda2d28fbbf07f58U, 0xbbd26748bd78134fU, 0xbd41f7053bac92f1U,
  0xbda42115bd2f0515U, 0xbe1556643dc94dc5U, 0xbd85316bbc225441U, 0x3ca905d3be01ef77U,
  0xbd3b1dc63c08a2dbU, 0x3d88696abd643518U, 0xbbc5bc8c384a3290U, 0xbd86c6d4bce5a06fU,
  0xbdebe69b3cbb75faU, 0xbdef0a473d9a4074U, 0x3dec695c3dfdaec3U, 0x3e3e4278bd186ef4U,
  0x3d1b066dbcbed853U, 0xbd103b893dde875aU, 0x3e2ab4a63b03fda0U, 0x3e2657ffbe21cd8fU,
  0x3d256ec6bd05fe46U, 0x3c5dd9443cb90473U, 0x3da865763e014d1fU, 0x3e0f3cae3df76449U,
  0x3cea62cbbd6031b6U, 0xbdd9842bbe27b96cU, 0x3d17b9e23d89037aU, 0x3cdcd7443d092c9aU,
  0xbe68b701bd69ace2U, 0x3d5448773e5cc375U, 0xbbddd2de3d8f7f64U, 0xbe068eb2bd7881fdU,
  0x3d3d85683ca27bc9U, 0x3df4555bbb0b02b4U, 0xbdd1c9a03c3574d5U, 0x3dfab0da3c1db9b5U,
  0x3d2e39d1be0bcc23U, 0x3db6b9bbbcea048dU, 0x3bcc6251bd953690U, 0x3cef8678bdd0f223U,
  0x3c1ad1f43cd158f6U, 0xbd7d9063bd818332U, 0x3b1be315bd22a597U, 0xbc14aa8cbca5a76aU,
  0xbe16da213d12df7aU, 0xbcbd4b0dbd4ca234U, 0xbdb855b13ccec32bU, 0xbd6623bbbbae7698U,
  0x3c90a4b7bd93b06bU, 0xbd3f239fbdf32c02U, 0xbd8de73a3d4f109bU, 0x3d7a4e373cf3d8a4U,
  0x3d139932bda34fe8U, 0xbc7146fdbd043743U, 0xbdcbbce5bdf1aeaaU, 0xbd55f61bbdbd0c2aU,
  0xbd8898bebd865318U, 0x3d9f0c5d3d878a58U, 0xbd93af1cbce902daU, 0x3d06f80cbe08e432U,
  0xbde389aebd92c1ebU, 0xbd82ef773d8fb702U, 0xbd2df195bc9e2b3cU, 0x3dd667c8bdfdd789U,
  0x3c1958aeba882d5aU, 0xbddca8fe3d05c942U, 0xbc52419cbd53e6bcU, 0x3df9c3f9bdd8d9aaU,
  0x3d8595a93d75f69eU, 0xbb10489ebba6bf65U, 0x3ce82ee9bc94d9c7U, 0xbafa31b73af5b263U,
  0x3dc8aab6bc516a4eU, 0x3d30c7993d15e98aU, 0xbbe535c6bd01d5f1U, 0x3d6495dd3d3ffe90U,
  0xbe1dc0df3ba57292U, 0xbe3671ba3d9c3905U, 0x3dfc0e423d2b85baU, 0x3cfd775abd69fb9bU,
  0x3d79da543d972a63U, 0x3c8af89e3dc3f4a8U, 0x3e0fa9f2bc3e2287U, 0x3be1437ebd64b6d4U,
  0x3d5516593d794f50U, 0x3d21b6093d8cb1f0U, 0xbd12f1513d904721U, 0x3d1b0b153d59916cU,
  0xbcd8c5233d06b17bU, 0x3de941a53c0341abU, 0x3d303ace3d4b5c46U, 0x3d8f2838bb5e0ac9U,
  0xbdeb05e13cb8cd7cU, 0xbdd934433e1f6994U, 0x3de5205f3d0eb75dU, 0x3d1316d1bd6f3c45U,
  0x3d39be423d65a64aU, 0x3bef25783e03ba6bU, 0x3cff39ec3d9bdf83U, 0x3dc8c315bd26d125U,
  0xbc89ab9fbb4bd587U, 0x3e227bb73d582858U, 0x3cb386c6bbf19752U, 0x3c6936be3dde2f87U,
  0x3d4a504e3d39138aU, 0x3d693aafbc16954fU, 0xbd63ecbbbda65fceU, 0x3d0e3898bc1a30d6U,
  0xbdc1f3fdbcf2f105U, 0xbc4fc905bcde349fU, 0xbc9e3440bd28eaf0U, 0xbcd93bfabdd163c0U,
  0xbd1e5a2d3ddb7f8dU, 0x3d2ad4123cc8d8eaU, 0x3e0857853d2d723eU, 0x3d36c6d1bd24b6c6U,
  0x3d38b399be334e49U, 0x3dc499dfbb76643cU, 0x3c8534dfbd353740U, 0xbd8302e13d8d11c4U,
  0xbdbeeb9abe2f1bd2U, 0xbc8a966cbda59065U, 0xbca54190bd129a65U, 0xbdbc19f2bdd4ea56U,
  0xbe33444fbe141ec5U, 0xbdc2cdf43d836e4dU, 0xbcd0222bbb48435dU, 0xbd83bf1ebdef95ddU,
  0xbd46a63c3b806e73U, 0x3d08739c3dc0f04dU, 0xbdb6cbd93db271d3U, 0x3cc995f03d88d65aU,
  0xbd7359eabb66ad1dU, 0x3dcd28583d8f080bU, 0xba3f380dbc8509a6U, 0x3d404ac13dccb80cU,
  0xbd0c93f7bd6b95c8U, 0x3cc97b1c3be48490U, 0xbd7019d0bd039f82U, 0x3df391bdbddbc2f9U,
  0xbe4432bbbde88158U, 0xbcef0ea23a2acc1dU, 0xbc141ae83d536daeU, 0x3d556993be0448acU,
  0x3d8fdb2ebdb6bf72U, 0xbd9b5a4e3d8655c6U, 0xbd9edb353dcc1cc0U, 0x3d4bae393de46121U,
  0xbd4213e13d86b8dcU, 0x3d36a9d6bd7254d6U, 0xbcdce6b23df07033U, 0xbd9442ffbcaccdeeU,
  0x3cb2f6333c6acca9U, 0xbda43fcc3e1a2d94U, 0x3dc32b7b3c804570U, 0x3da679b83b690935U,
  0x3de03a153d710e0dU, 0x3bf7cabdbd8f2e33U, 0xbd1adcf73d98f365U, 0x3dc73545be0b1258U,
  0x3c7b1e07bd53f865U, 0x3d7522043d65b47bU, 0x3de3a5b0bd1d9bbfU, 0x3dec8404bc4ece7dU,
  0xbb5eb69e3d159990U, 0x3d46b871bd378289U, 0xbd2dbf7bbc85e414U, 0x3dd692243c096b91U,
  0x3ce93646bdeeaf4dU, 0xbc29c9debd7bc953U, 0x3c1e5c453d904a3eU, 0x3c45a60dbdfaf873U,
  0x3d0610953d4f4ed8U, 0x3ce69c7fbe3fa8a4U, 0x3db001babe2b7c1dU, 0x3ce865bbbe4db321U,
  0xbd134e6d3d93a451U, 0xbc05e3873d88e036U, 0x3d96245b3bee6e50U, 0x3d592f2f3dad9a02U,
  0xbdb84c8ebdb8bc7bU, 0x3e06a2e0bcc56fb3U, 0x3d1fe0c0bcce7cd1U, 0x3d7a95723dfe1b3eU,
  0xbc692cf7be2ff899U, 0x3dbcd6093d3139e3U, 0xbc900e803d62b92fU, 0x3c82438b3d07964cU,
  0x3df533fc3dad0f24U, 0xbe008946bd9550f9U, 0xbd8b66cb3d34ba0aU, 0xbd3dc90dbdb6c0fbU,
  0xbd7b41e73d2b7101U, 0xbd0d7dcabb3247deU, 0xbdb9ba97bb91ec98U, 0x3d187414bb9f70f2U,
  0x3c605ba23d2a6418U, 0x3d66a344bcd6e8b9U, 0x3d31768fbd60d81fU, 0x3d4e2f843de0f975U,
  0xbe000c3a3d8f8a30U, 0xbd84d2b23d0aff00U, 0xbd8aa6cabe1f6f61U, 0xbe35971cbd22f856U,
  0xbd9763afbd14e81eU, 0xbe130799be186000U, 0xbcc43417bd5fb4e9U, 0x3dd42f10bce63a08U,
  0x3d838f74be1a9957U, 0xbde10e143d96c1c3U, 0x3dc49b1fbdee0e24U, 0x3c0001ecbe4dd853U,
  0xbc2e39593d78b111U, 0xbd34d2a63d0c70bcU, 0xbd2b0fb039f75860U, 0xbd196661bd271a20U,
  0xbdaf1ef3bcc66927U, 0xbd6b8febbbf5bf43U, 0xbd694fc53dc8373eU, 0x3d787c953cce114dU,
  0xbd495f0bbd2aefe0U, 0xbc6591773e46f151U, 0x3d8bf0513d9f2a78U, 0x3d9a9d8cbd236aecU,
  0xbcff02cdbd337877U, 0x3dfb278b3dc30b13U, 0x3da6835b3d9964bfU, 0x3cb94f91bd5f8597U,
  0x3d81594fbd2a52ccU, 0xbca717e53defddc3U, 0x3d7bc87a3c5f0b50U, 0x3d53f9f23dd99435U,
  0xbe161e75be1e4736U, 0xbdf7855f3cca814dU, 0xbd2fc741bc84b7cbU, 0x3c3406b5bbd70096U,
  0xbcc864adbc6c9f88U, 0x3c3a86b33e064c67U, 0xbe3591b3bd17aa69U, 0xbe951bf1bba126e3U,
  0x3d497321bdabd93dU, 0xbc10e4adbe06b430U, 0xbe251cef3d53eb05U, 0x3d9326e9bcba1fc6U,
  0x3c66a81cbda8f61bU, 0xbd845e9a3d28957fU, 0xbe37990bbcc5114dU, 0xbcd1186fbdf3efe8U,
  0xbdb654d03e06f028U, 0x3ca7a9013d77cb5fU, 0xbe3e29a0bdb8c99cU, 0xbd25c79ebe6a5277U,
  0x3d83235bbe63cde5U, 0xbe0be986bdec1b83U, 0x3ccb12053d475f50U, 0x3c5609e93c6c2637U,
  0xbd75e7e1be48a4f0U, 0xbe382df0bc320834U, 0x3e3a03c2be8c3f22U, 0xbe43a3e5be306420U,
  0xbd870a92bcbf75f1U, 0x3c4fd95abc55cdb3U, 0x3cd51c9e3ca93cbcU, 0xbd258dddbd845718U,
  0xbe081f73bd8910a1U, 0x3d5dba4ebdaf0bb8U, 0xbd4ef2ae3d9810d9U, 0xbd04dbb9bd173a60U,
  0xbe8357bf3b9cede4U, 0xbdd819a73d23e12fU, 0x3d9e377b3c40589cU, 0xbd44d8a23d924425U,
  0xbd15269e3dd0ade2U, 0x3d0b8ed5bdb9af18U, 0x3dba55d13cfb272cU, 0xbbe359babdfbe9eaU,
  0x3a99a824bd413c31U, 0xbc53d14c3d4148fcU, 0xbdef31723d8a2826U, 0x3d572ecf3dd03985U,
  0xbdae96e8bcdb1df8U, 0xbd732c88bde5fb5cU, 0xbda1b2fabd84467eU, 0xbde2969cbd109658U,
  0xbe13d4e6bdfcab7eU, 0x3d5eda263bc057ceU, 0xbda73501be6f8da9U, 0xbe3e6fb23d92e49bU,
  0x3db6b764bd853411U, 0x3dcaa1fcbe4fcf55U, 0xbe2f4b6a3da34b29U, 0x3d3bd925bd5f68c8U,
  0xbae4c919be390578U, 0xbcfd2e29be6319a9U, 0xbdd5264dbe074ed5U, 0xbe25f68fbd9ca714U,
  0x3d3672493cbefb67U, 0x3d6a52eebcd3abd8U, 0xbdd74550be1d251cU, 0xbd996d88bd76f5e1U,
  0xbd013287bdcf8ecaU, 0x3cb278f8bd5d0b01U, 0x3c5a72ed3b3e78f7U, 0xbc6938e33cab9259U,
  0xbd384b25bdf46c30U, 0xbc2bbedd3c92380eU, 0x3da45739be18548eU, 0xbe6a8e92bccb6c21U,
  0x3d15565a3d12ac6fU, 0xbdb3f8bcbd088749U, 0xbd06b99fbd94f396U, 0xbe2a5b44bd7eb0beU,
  0x3d2012d1bd926511U, 0x3d2209d2bd9700b9U, 0x3d7acc28bc4d7911U, 0x3d30e3e73c7fa802U,
  0x3d513894bdbfbc38U, 0xbe0acec83e0525a6U, 0x3d7444dd3cdeaf25U, 0x3d148933bd725c54U,
  0x3ce3f52ebcd2a86eU, 0xbb13a6dd3d0115dcU, 0x3d88d6e83deb75a8U, 0x3d776c403b876624U,
  0x3dd7ab363dcbd7cfU, 0x3d6cf4863b80feb3U, 0x3dc342fa3dc04536U, 0x3dd2857d3d785252U,
  0x3c9d9e00bda93be7U, 0x3d7dd577bda2ef88U, 0x3db506703d6430c8U, 0x3e2a980fbce265f4U,
  0xbe07017c3db6d81fU, 0x3d774d623dcce51cU, 0xbd8d6419bd28d381U, 0xbde45599bd10e482U,
  0x3cbf643d3d6502aaU, 0x3d4f00d0bd987325U, 0xbdf265013d5c1188U, 0xbbe86cba3a5794beU,
  0x3d725a47bc7fd763U, 0xbcc3ef54bdc186c9U, 0x3d256793bb4dd3e0U, 0xbd968d04bd9638e6U,
  0x3dc24c58bd87e23cU, 0x3dfd61edbe0ec2fcU, 0x3de99b71bc29932cU, 0xbcbef445bd81b4a0U,
  0xbd9ae363bce51329U, 0x3e0631743dcdb08fU, 0xbc2c58183d70a119U, 0xbd6bb0d7bdd428e6U,
  0x3dcb8bc33dcaa3ccU, 0x3e5d1de23c87cc15U, 0xbdf45e8c3de39ec6U, 0x3cb402823e4535e0U,
  0x3df5a8d83ced91e4U, 0x3c1f1e90bd9a74fcU, 0x3dbe64693db768fbU, 0x3d3f300fbcc429f8U,
  0x3d8be0d43d17687aU, 0x3c86c4e1bd166aa0U, 0xbcff28e33d370b2aU, 0x3d32e086be1b9b8bU,
  0xbd6c206a3e0b8c9eU, 0x3e74dd0c3d9b4e70U, 0x3d6346153df0029cU, 0x3d8225cebe1979f7U,
  0xbd9c05f33dd97542U, 0x3d7b73f2bceb3790U, 0xbc0711bd3da22268U, 0xbddb8a483e14e840U,
  0xbd45ff57bd5db890U, 0xbc226bd6bd41253aU, 0xbc6045aebdaadfabU, 0xbd74fdbfbdfbc0ffU,
  0x3cef9918bd2c0db7U, 0xbd7b62c7bd88dd9fU, 0x3dc90f9a3b9e8fd6U, 0xbd0c918ebb4c2458U,
  0xbe0b89c63bcffebaU, 0x3e36d7063dd27d66U, 0xbd95c4bf3d96f408U, 0x3cc27318bd9cf192U,
  0xbda7c373bc39497dU, 0x3dab607fbd08a9e9U, 0xbd2bf7a4bc375ee2U, 0x3dc118ac3d2cda66U,
  0x3d6de1673cdfd2a7U, 0xbdbe3381bd7ad633U, 0xbdd72b23bdf6cfa7U, 0xbc9d14bdbd231914U,
  0x3c7997cfbe170d6dU, 0x3d1c8b45bc348089U, 0x3db940153b8c6e62U, 0x3d272ed0bdcf63e5U,
  0xbda080653cc0b2ebU, 0xbe034c78bd0ff2f9U, 0xbc47bee93e058206U, 0xbcb6c9e2be6b7c19U,
  0x3e5aedd53c4cba3eU, 0xbdc47888ba3d3469U, 0xbd81f958bd67736bU, 0x3bd087433d873000U,
  0x3af608d2bd4ca281U, 0x3df1f1a93d2e083aU, 0x3da7dbad3d9e359eU, 0x3d60274d3c608a7bU,
  0xbc1b4c32bd96069fU, 0xbd396c08ba10ecb8U, 0x3dd2599b3dc532d3U, 0x3c3e4b5cbe3b292cU,
  0xbcfda0693d4cc9b2U, 0x3c1cf0343d64e86dU, 0xbd0ebe153e1b18a6U, 0x3c8bfa44be21101eU,
  0x3d1fda71390bf772U, 0x3d13c465bd77ca8cU, 0xbb56a30d3da58a6dU, 0x3c3a2e0b3ce8ef1dU,
  0x3d42898f3b18f972U, 0x3c98bd96bdb2307aU, 0x3d7b1e8e3dbdbd67U, 0xbcb417593d7c9fb5U,
  0x3dc0fe36bc6ce664U, 0xbc15aad6bbcacd7aU, 0x3d11c8c63d05a5d4U, 0x3d73a78dbdd3d82aU,
  0xbdfb6320bd20b6bbU, 0xbc0949db3c86c99cU, 0x3b278dbdbdbfefd3U, 0xbb05dabcbe04985bU,
  0x3d83fb233c8a2ef8U, 0x3e0b8f233d12e9beU, 0xbe4086693cf726beU, 0x3d9d0bc73cf4be4eU,
  0x3dac16b1bd5dbbe1U, 0xbc355783be229043U, 0xbd8a32f2bdf3f203U, 0x3c6a9a5f393ab201U,
  0xba62120ebdd8ade6U, 0x3d863cc2bc68c946U, 0xbcaee4b63de5187aU, 0xbdf7b8c63d0ffe6eU,
  0x3e0129263ae1ea11U, 0xbe9b2b953c71e781U, 0xbda7c9f4bd346742U, 0xbd5c4885bda0780dU,
  0xbc88d5323d78e92aU, 0xbd751a413d4b2031U, 0x3d613163bd660616U, 0x3e016631bdbc436aU,
  0x3d17574d3dc3821aU, 0x3cb886b9bba76b6eU, 0x3d17e6f83d8e596bU, 0x3cc6e40a3de1de7dU,
  0xbe05ebd7bd5624ffU, 0xbd961bc83dafb335U, 0x3dfe7dd43e022c3bU, 0xbd066a503d9beddeU,
  0x3c25990bbd28e8a4U, 0xbe00d4433ca499e5U, 0xbcc8417a3d8b16f6U, 0xbd13a6c7bd85a05fU,
  0x3da6f7c2bc8aa1caU, 0xbc13989c3dfca5c0U, 0x3dc90c1abd8e2dc0U, 0x3e23293dbe0b14adU,
  0x3ddb9f92bd3d97bdU, 0xbc6c7f033cb8ad76U, 0x3d6a54013c31d57eU, 0x3dafc5d43ded5ee6U,
  0x3c849d5bbe2a6268U, 0xbd7758273d965990U, 0x3d4041433d51fa27U, 0xbde2396fbc99a132U,
  0x3d9fc0993d3e8524U, 0xbdd279d1bd42e6e3U, 0x3d61566d3d0f362fU, 0x3cc043e1be03b3efU,
  0x3e0ee04cbd91eb1bU, 0x3de077c7bc4a9730U, 0x3d9cbc34bd205711U, 0x3dc7b34c3c602800U,
  0x3defad58bd452a6eU, 0x3d874eb4bde28b84U, 0x3e0033363dd42936U, 0x3aa470f93e04b22dU,
  0x3cae9f89bc09be08U, 0x3c88f105bd1f9b75U, 0x3dd33a1fbcb187b3U, 0x3db5cb27bdc9cc11U,
  0xbd345e09bdc55400U, 0x3d7d7c84be01db1aU, 0xbd992eb9be0bf419U, 0xbd1171a23d4e5aadU,
  0xbd058e9f3c1f8ef7U, 0x3d33f3a1bc4c811aU, 0xbddd3b4e3db88129U, 0xbdab62c53cb30f84U,
  0x3d1633c9bdecbb4eU, 0xbddcb811be280ba6U, 0xbda251f1bde2c9faU, 0xbe0d9663bdaec411U,
  0x3d04d339bcdfb3d7U, 0x3d3ca727bdf9351cU, 0xbd47404c3cc7a675U, 0x3d7e5dc73cf6a159U,
  0xbe378d62bdf2d68dU, 0xbd8c00fbbe5c561eU, 0x3d621526bd80b942U, 0x3cb121293dc1d541U,
  0x3ceb309cbd923f65U, 0xbe2bb3a3bd89a410U, 0x3cca9badbdc266f2U, 0xbdba0e55bd9f6e50U,
  0xbdc4839a3d140748U, 0xbdbf63eabd7b6a05U, 0xbdb1423dbd3a3c47U, 0xbcccd81a3c9704c9U,
  0x3d7ca085bd84ef67U, 0x3d13f6ce3d7b68efU, 0xbdba4d183c189a3bU, 0xbb707abc3ca15cb1U,
  0xbd32fef2bd589e5aU, 0xbc518c15be0a4118U, 0x3a1156163d32beecU, 0x3cef0869bcd5e6d9U,
  0x3d45f0bcbaebef16U, 0xbe1fb0f3bcef322fU, 0xbe0117abbcaea8baU, 0xbd1bdc093dc00415U,
  0x3baf54693c865b6dU, 0x3d348ffebdcbab71U, 0xbd5bb9cfbd2b8c57U, 0xbd3a4ed83da450c2U,
  0xbd111d703cf07027U, 0xbd9bb4fabddebdbdU, 0xbca518dfbe13aee4U, 0x3d9596903dc634b5U,
  0x3d2db51abe052ab8U, 0x3d8c1418bdec7dfbU, 0xbde31c42bd9c4708U, 0xbd1966e2bdd6b6efU,
  0x3ca3a2a2bd0cde4dU, 0xbdb4ed6d3d8744efU, 0x3de3887e3b267ebfU, 0x3ce882ab3c2e44ffU,
  0x3a870dfe3d9ed296U, 0x3af1d8ed3d3d4c2dU, 0x3da0f5213d162beeU, 0x3c32ca1bbd46bed1U,
  0xba143f703d3d5b69U, 0x3d40519fbccafcbeU, 0xbda2c592bd59ccf5U, 0x3d96a559bcac6260U,
  0xbda6f3a7bc9c7367U, 0xbdff7240bc652720U, 0x3d3926e83d63cea6U, 0xbd1723d13d161ca3U,
  0x3d2da60c3d7852b2U, 0xbe0e3e013d8fa1c9U, 0xbd44c7fcbe4c401aU, 0x3c835707be0e9cdeU,
  0xbe1c6bc23d7888bfU, 0x3d926b7bbdc00035U, 0x3cb797d5bd28e9e5U, 0x3d1f338e3d33edf3U,
  0xbdbc5ea2bcfe3e6bU, 0x3dce3d913de62f16U, 0xbdbaff273db620e3U, 0xbd03be253e000c7fU,
  0xbd35e4f03dcbcc8bU, 0xbe70cbdc3cc0e2f1U, 0xbc1f2c91bd28b75aU, 0x3d855b153c7ed0c5U,
  0x3d00a86cbdb588afU, 0xbc9c862bbc85bc42U, 0xbe0bf824bdae5957U, 0xbca87c2cbd6043c1U,
  0xbd6efcf63de85c70U, 0xbd0ac6053c5930feU, 0x3d545149bcb2c2afU, 0xbbd09f8f3dcd058aU,
  0xbd353bd53dc0a928U, 0xbd9629abbd1e9680U, 0xbe0f1d30bd49adc0U, 0x3e09ad763d62ab92U,
  0x3da48b96bd81a120U, 0xbddbfbedbcbebd32U, 0x3db199b5bd26cc8cU, 0x3d9db5ccbd8a4b55U,
  0x3c51da5cbe16985aU, 0xbe2038883ddd410bU, 0x3e2ef42ebde4d3faU, 0xbe11d5ebbdc25473U,
  0xbcda84d23defd097U, 0xbcd3ccb2bd8dc985U, 0xbd50a240bd855636U, 0x3a9932c1bb0d563eU,
  0xbdaa970e3b9aba46U, 0xbddde4ca3d9cd104U, 0xbd8608663d139ad5U, 0x3c95f874bd4aa2e4U,
  0xbd52cf0e3dafad81U, 0xbd191ad33c34593eU, 0xbb92fa7b3d8f964bU, 0xba5a715a3da374aaU,
  0xbdc54b1a3c581c36U, 0x3da2ee093ae1b498U, 0x3d12ee73bdfb34d8U, 0x3ca34c7fbde963bfU,
  0xbd0d8f8d3de9f086U, 0xbc94bdd53dbfc13dU, 0x3cb10a15bc00f683U, 0x3d4b1b6a3cff4007U,
  0xbdbf24f3be135035U, 0xbe09ce053c50c400U, 0x3d60f907bd059f39U, 0xbdb326d73c8fe970U,
  0x3d896520bc90a13fU, 0xbe5600d1bc7fca10U, 0xbddc45b7bdfb1befU, 0xbe3237413e1fa043U,
  0xbc49f1753be40c5fU, 0xbd15ed33bde67e30U, 0xbe423aa3bd2489b3U, 0x3d87260bbdd27b2bU,
  0x3c7dd6cb3d391023U, 0x3d3c60fc3e03b76cU, 0xbda27102bd6971c8U, 0x3d0f5ff4bdc8cbb1U,
  0x3d39f6de3bf0e179U, 0x3d6c05eebda5374eU, 0xbcdc7aafbc92ff06U, 0x3cda74bebda264d1U,
  0xbe165130bddca2b7U, 0x3d831d5e3a2fb17cU, 0x3d89c52c3d2e55e9U, 0x3d4260a73a80b42dU,
  0xbd9675313d12b1a5U, 0xbdb28f5bbd914a71U, 0xbe06e944bd57c97cU, 0x3d0658863dc2b746U,
  0xbde5af1abe32801cU, 0x39f529d0bdaecaeeU, 0x3ce64dfabd31b949U, 0xbcf528e9be109534U,
  0xbd06dc103c1c8db5U, 0x3da2c502bdc01dd6U, 0xbd2c8afdbd8618aeU, 0x3e30d78cbe07845bU,
  0xbe6d119ebcd41a85U, 0x3d85bfaa3bc95511U, 0x3e03bd403b497b73U, 0xbca535e6bdd032c9U,
  0x3da1b30c3d874b8cU, 0x3c90b1e93da28ec0U, 0x3d74f62a3ca82ffdU, 0xbd5296fb3d900890U,
  0x3de507cdbd40f81dU, 0xbd5b3603bda4c9c6U, 0x3d38b6bb3e072ffbU, 0xba56e8f43c432db1U,
  0x3df28bbf3dc324e9U, 0x3d510708bd09a776U, 0xbd031f0cbd094a66U, 0x3c37f7d9bba2aa6dU,
  0xbe1e421a3d7c7854U, 0x3cccbda8bbbea716U, 0x3b2ee9763c5d5dc0U, 0x3c662d80bd7a11f5U,
  0x3dd1e3273da57b85U, 0x3d77551f3cb132d2U, 0xbe2ce49c3d273e7aU, 0x3c842eb23e083ad5U,
  0xbd43d5bc3e08eef6U, 0x3c849a70bdc9b645U, 0x3d7e2ddb3d2d8567U, 0x3d9ec10f3d935a19U,
  0xbcef191b3ce2ec8bU, 0x3d4fdf92bdc2bdf4U, 0x3c0da095bd60e3ddU, 0x3e4e2c99bd51b6e4U,
  0x3be61c3ebd95acacU, 0xbe0e2b2bbdf3aad4U, 0xbc85e9fd3d0d38c7U, 0xbd82bd423c4e6843U,
  0x3d5f8988bda28337U, 0xbd006640bc752549U, 0x3d81f4553b8c7f12U, 0xbd8f1728bcc75c9aU,
  0x3d116fb7bd93922cU, 0x3dab1f1e3b5c5f4eU, 0xbd45f672bd989021U, 0x3c434aed3d3a185eU,
  0xba37eb75bcba4623U, 0xbdbed529bced962bU, 0xbaabcc783b3df3a1U, 0xbd3f3d5abbc14d37U,
  0x3d4a5b83bd33b2e9U, 0xbde439273d53cdc2U, 0xbdb6978d3df97affU, 0x3d538acebdbc8375U,
  0xbd3b844b3ad211f8U, 0x3d2a47203d6e74baU, 0xbdb318d2be01d2a2U, 0x3dfa1df2be37b8a5U,
  0xbd83f4923daa622aU, 0xbbb173b13c891d78U, 0x3d9e4d24bc8d7ad4U, 0xbc50f3dbbbf38394U,
  0xbdcba675be07d592U, 0xbe1ca1943c6fcaefU, 0x3db2bb383e052e83U, 0xbc9a3b413cb03562U,
  0x3dbb9103bcf1133dU, 0xbe0bc8143cff3dc1U, 0xbd9f64683d5af779U, 0xbce65e703dd97182U,
  0x3cf3beb0bbc23347U, 0xbc82bc23bcc45085U, 0xbe101eabbd1cc25dU, 0x3dce2095bdd72242U,
  0x3d6507a73d027fb0U, 0xbd1e9978bd778ca2U, 0xbcf368b1bcd01e03U, 0xbbaa9ec73c203b46U,
  0xbe395d41bdd2eb4eU, 0xbdb8733fbddbd32aU, 0x3d1abcdebdba3bb6U, 0x3ceeea9f3d494b3fU,
  0x3d21b19abd751ddeU, 0x3d312602bdeca05fU, 0xbddf4c043d20f138U, 0xbd3fd832be501647U,
  0x3e0e2f8abdf0f236U, 0x3e1773e1bd21b8a3U, 0x3e205c7dbc6b6106U, 0xbe2cba0ebe39b02cU,
  0xbde93141bc881e18U, 0xbd254cb93cd43644U, 0x3d9538ca3dc19897U, 0x3c2270823d34bb07U,
  0xbdd089a5be364649U, 0xbe0abfa63d887902U, 0x3da489953c4e10ccU, 0xbdf5584b3de18733U,
  0x3d7f87b7bd83a156U, 0x3dbdd3ed3dbc9c2dU, 0xbd75422e3c44e0e9U, 0xbdf36bf3bbf1ea11U,
  0xb7f844003c65ae90U, 0x3ceba641bdc26597U, 0x3da2048d3de861e1U, 0x3d85cb28bc9cb2ecU,
